<unk>	0
<s>	0
</s>	0
▁t	-0
he	-1
▁a	-2
in	-3
▁w	-4
▁s	-5
re	-6
▁o	-7
ha	-8
▁the	-9
er	-10
ou	-11
en	-12
▁b	-13
▁m	-14
on	-15
is	-16
it	-17
▁to	-18
ed	-19
▁an	-20
▁c	-21
▁f	-22
▁of	-23
ing	-24
▁he	-25
▁and	-26
ll	-27
▁d	-28
▁n	-29
▁h	-30
ar	-31
as	-32
▁in	-33
le	-34
▁be	-35
an	-36
▁p	-37
or	-38
▁ha	-39
at	-40
ot	-41
▁her	-42
es	-43
om	-44
hat	-45
▁I	-46
ion	-47
ly	-48
▁e	-49
et	-50
li	-51
st	-52
▁y	-53
▁“	-54
▁re	-55
▁was	-56
ve	-57
ent	-58
ce	-59
▁you	-60
ver	-61
ld	-62
im	-63
▁g	-64
▁not	-65
▁M	-66
ch	-67
se	-68
ut	-69
gh	-70
ow	-71
▁that	-72
▁as	-73
▁it	-74
▁she	-75
▁l	-76
ct	-77
▁for	-78
▁th	-79
id	-80
her	-81
ith	-82
▁with	-83
ould	-84
ab	-85
▁on	-86
ay	-87
ter	-88
▁wh	-89
ir	-90
▁his	-91
▁had	-92
▁Mr	-93
▁we	-94
▁su	-95
▁B	-96
▁at	-97
al	-98
▁u	-99
ad	-100
ri	-101
.”	-102
▁con	-103
▁so	-104
▁him	-105
▁is	-106
▁have	-107
ill	-108
ation	-109
ght	-110
ect	-111
our	-112
very	-113
ain	-114
▁L	-115
ro	-116
eth	-117
▁E	-118
▁all	-119
▁me	-120
pp	-121
ur	-122
ust	-123
▁my	-124
▁T	-125
ore	-126
▁by	-127
▁de	-128
▁C	-129
▁but	-130
liz	-131
▁se	-132
▁Eliz	-133
ss	-134
lf	-135
qu	-136
abeth	-137
am	-138
▁Elizabeth	-139
ic	-140
▁H	-141
ke	-142
nd	-143
▁whi	-144
▁ex	-145
oo	-146
▁ne	-147
ess	-148
red	-149
if	-150
end	-151
rom	-152
▁sa	-153
▁le	-154
▁were	-155
▁com	-156
▁which	-157
▁k	-158
▁been	-159
▁W	-160
▁D	-161
--	-162
cy	-163
self	-164
all	-165
ge	-166
▁could	-167
▁no	-168
▁st	-169
ard	-170
▁_	-171
▁The	-172
▁S	-173
▁from	-174
▁very	-175
▁would	-176
▁they	-177
▁them	-178
▁whe	-179
able	-180
▁do	-181
▁fe	-182
▁am	-183
▁your	-184
▁who	-185
▁un	-186
▁dis	-187
,”	-188
▁man	-189
▁li	-190
▁what	-191
ul	-192
arcy	-193
▁Darcy	-194
han	-195
▁their	-196
art	-197
▁kn	-198
▁sh	-199
▁will	-200
ant	-201
▁any	-202
▁af	-203
▁A	-204
est	-205
ough	-206
ome	-207
ment	-208
▁said	-209
ra	-210
ort	-211
ance	-212
pe	-213
ous	-214
ure	-215
ity	-216
▁this	-217
ong	-218
ther	-219
il	-220
▁per	-221
ley	-222
one	-223
▁such	-224
ate	-225
▁there	-226
▁al	-227
▁v	-228
enn	-229
▁int	-230
hing	-231
uch	-232
▁ad	-233
▁know	-234
ved	-235
▁im	-236
itt	-237
▁ag	-238
▁or	-239
▁are	-240
em	-241
iss	-242
ennet	-243
▁Bennet	-244
▁than	-245
nt	-246
▁Mrs	-247
▁more	-248
ather	-249
oll	-250
ol	-251
ive	-252
▁J	-253
▁ac	-254
▁much	-255
ost	-256
out	-257
▁can	-258
ight	-259
au	-260
▁when	-261
ind	-262
▁pre	-263
▁ab	-264
▁pro	-265
ane	-266
ingley	-267
▁Bingley	-268
ood	-269
and	-270
ast	-271
▁must	-272
os	-273
fore	-274
▁She	-275
ak	-276
ady	-277
▁Miss	-278
ister	-279
▁Jane	-280
▁en	-281
ence	-282
▁other	-283
▁sister	-284
hi	-285
us	-286
▁how	-287
▁part	-288
wn	-289
ked	-290
ine	-291
ven	-292
reat	-293
age	-294
▁exp	-295
ert	-296
other	-297
ally	-298
pt	-299
▁every	-300
ake	-301
ink	-302
▁one	-303
ily	-304
▁But	-305
▁att	-306
ving	-307
▁qu	-308
▁He	-309
▁did	-310
?”	-311
▁if	-312
▁comp	-313
▁should	-314
▁j	-315
way	-316
ress	-317
ame	-318
▁think	-319
▁sp	-320
ide	-321
▁has	-322
▁r	-323
▁ob	-324
ham	-325
fect	-326
fe	-327
ite	-328
leas	-329
▁herself	-330
di	-331
ry	-332
ick	-333
▁again	-334
un	-335
ble	-336
tter	-337
ish	-338
el	-339
▁see	-340
▁imp	-341
▁some	-342
ins	-343
▁soon	-344
▁before	-345
ject	-346
▁never	-347
ond	-348
▁rep	-349
▁tim	-350
ord	-351
▁mar	-352
ings	-353
ag	-354
hed	-355
▁app	-356
▁only	-357
▁though	-358
You	-359
urn	-360
▁happ	-361
ions	-362
▁pleas	-363
▁po	-364
▁great	-365
▁res	-366
▁It	-367
▁say	-368
▁G	-369
▁might	-370
ies	-371
ist	-372
▁good	-373
▁own	-374
ever	-375
▁fri	-376
ie	-377
▁after	-378
ose	-379
▁sha	-380
▁too	-381
▁time	-382
ickham	-383
um	-384
ner	-385
ness	-386
▁now	-387
ought	-388
la	-389
ng	-390
▁[	-391
▁Coll	-392
▁most	-393
▁Collins	-394
▁Wickham	-395
▁may	-396
▁well	-397
▁up	-398
ittle	-399
▁friend	-400
de	-401
ru	-402
▁us	-403
▁little	-404
▁ho	-405
ried	-406
are	-407
ear	-408
▁P	-409
▁loo	-410
▁being	-411
ree	-412
lie	-413
▁go	-414
▁Lady	-415
ise	-416
te	-417
▁N	-418
dia	-419
ible	-420
ydia	-421
ary	-422
▁feel	-423
▁Lydia	-424
ig	-425
▁fa	-426
▁off	-427
▁young	-428
th	-429
ire	-430
▁cons	-431
ell	-432
▁br	-433
▁nothing	-434
▁without	-435
▁tw	-436
augh	-437
▁even	-438
ration	-439
ound	-440
▁cont	-441
ertain	-442
uc	-443
▁ent	-444
▁make	-445
ustration	-446
ci	-447
▁day	-448
▁lo	-449
▁fam	-450
▁fir	-451
llustration	-452
room	-453
▁des	-454
ach	-455
ful	-456
ward	-457
ps	-458
Illustration	-459
ade	-460
▁then	-461
▁dear	-462
ention	-463
alk	-464
ice	-465
▁first	-466
▁shall	-467
▁long	-468
ass	-469
led	-470
▁rem	-471
har	-472
per	-473
▁belie	-474
▁like	-475
▁family	-476
shi	-477
▁add	-478
▁out	-479
od	-480
▁ass	-481
ac	-482
▁F	-483
ether	-484
iness	-485
▁over	-486
▁thought	-487
ount	-488
,--	-489
▁pr	-490
▁into	-491
▁manner	-492
thing	-493
we	-494
bour	-495
▁spe	-496
▁ar	-497
▁op	-498
aughter	-499
▁mother	-500
▁two	-501
ated	-502
▁ever	-503
▁father	-504
▁certain	-505
cc	-506
own	-507
▁sc	-508
▁acc	-509
▁daughter	-510
fere	-511
pect	-512
▁himself	-513
ave	-514
ouse	-515
▁made	-516
▁Cather	-517
▁letter	-518
▁Catherine	-519
▁inc	-520
▁pers	-521
▁ret	-522
▁hope	-523
▁supp	-524
▁however	-525
▁wor	-526
not	-527
ten	-528
iz	-529
med	-530
ber	-531
ious	-532
ways	-533
▁sat	-534
hen	-535
▁und	-536
▁give	-537
▁always	-538
iv	-539
ced	-540
int	-541
lied	-542
▁last	-543
▁You	-544
lt	-545
light	-546
▁rece	-547
▁about	-548
▁house	-549
▁away	-550
▁rec	-551
▁reg	-552
▁sub	-553
▁way	-554
ither	-555
op	-556
▁mean	-557
▁seem	-558
▁beg	-559
▁its	-560
▁room	-561
▁gr	-562
aint	-563
▁many	-564
ied	-565
▁They	-566
ract	-567
▁cannot	-568
▁wr	-569
ined	-570
iner	-571
▁affect	-572
ning	-573
▁unc	-574
sent	-575
▁som	-576
riage	-577
▁kind	-578
▁enough	-579
▁sm	-580
icul	-581
ished	-582
right	-583
▁sure	-584
▁expect	-585
▁return	-586
ces	-587
▁just	-588
▁love	-589
for	-590
ssible	-591
▁tr	-592
bt	-593
▁ans	-594
▁Long	-595
▁felt	-596
▁speak	-597
▁O	-598
ged	-599
unt	-600
wards	-601
lot	-602
▁cha	-603
▁occ	-604
ility	-605
▁Gard	-606
▁gent	-607
▁replied	-608
▁Gardiner	-609
ause	-610
ener	-611
▁saw	-612
▁look	-613
▁under	-614
igh	-615
isf	-616
▁inde	-617
▁express	-618
▁pleasure	-619
izz	-620
lem	-621
ended	-622
▁acqu	-623
▁pass	-624
ody	-625
ened	-626
vour	-627
ction	-628
▁quite	-629
▁better	-630
▁subject	-631
ea	-632
ens	-633
ery	-634
izzy	-635
▁wish	-636
ign	-637
body	-638
less	-639
▁set	-640
▁vis	-641
ately	-642
▁myself	-643
ield	-644
vers	-645
▁dif	-646
▁hear	-647
▁often	-648
ived	-649
▁mor	-650
▁Char	-651
▁came	-652
▁inst	-653
ations	-654
▁where	-655
▁K	-656
lic	-657
▁adv	-658
▁pla	-659
▁rel	-660
ason	-661
that	-662
▁done	-663
▁feelings	-664
▁adm	-665
▁bec	-666
▁dist	-667
▁cried	-668
▁visit	-669
▁object	-670
ser	-671
▁want	-672
▁really	-673
▁acquaint	-674
ud	-675
ers	-676
haps	-677
▁And	-678
bourn	-679
▁aunt	-680
▁call	-681
▁come	-682
▁less	-683
▁till	-684
irl	-685
▁mat	-686
▁sur	-687
▁conc	-688
▁whom	-689
▁having	-690
▁believe	-691
▁gentlem	-692
▁Longbourn	-693
ably	-694
▁wom	-695
lotte	-696
▁girl	-697
▁read	-698
▁Charlotte	-699
▁R	-700
erm	-701
his	-702
▁gi	-703
ford	-704
ucas	-705
▁eng	-706
▁ill	-707
▁disc	-708
▁form	-709
▁turn	-710
▁Lucas	-711
▁gener	-712
ew	-713
itu	-714
▁ch	-715
cept	-716
ince	-717
▁mom	-718
▁hand	-719
▁heard	-720
▁moment	-721
!”	-722
fort	-723
▁lad	-724
alked	-725
▁Lizzy	-726
▁present	-727
▁affection	-728
vi	-729
nce	-730
arly	-731
illi	-732
▁Her	-733
▁end	-734
▁cour	-735
▁walk	-736
▁count	-737
▁ladies	-738
▁satisf	-739
▁pl	-740
ered	-741
▁down	-742
▁foll	-743
▁fort	-744
▁word	-745
▁charact	-746
pos	-747
ember	-748
▁does	-749
illiam	-750
▁happy	-751
▁particul	-752
ks	-753
shire	-754
▁whole	-755
▁brother	-756
▁delight	-757
▁In	-758
▁inv	-759
▁our	-760
▁comm	-761
▁take	-762
▁anything	-763
xt	-764
ety	-765
▁ser	-766
▁seen	-767
▁indeed	-768
▁reason	-769
▁morning	-770
pr	-771
inu	-772
ider	-773
ised	-774
most	-775
owed	-776
ained	-777
▁conf	-778
▁sisters	-779
▁ev	-780
medi	-781
▁det	-782
ething	-783
▁place	-784
▁still	-785
▁looked	-786
▁character	-787
ep	-788
ft	-789
lly	-790
ured	-791
▁His	-792
▁dec	-793
▁har	-794
▁sec	-795
field	-796
▁opin	-797
▁person	-798
▁continu	-799
oth	-800
ret	-801
ves	-802
▁jo	-803
▁few	-804
ition	-805
▁find	-806
▁talk	-807
▁found	-808
▁world	-809
▁appear	-810
▁immedi	-811
▁evening	-812
▁perfect	-813
ty	-814
cess	-815
ense	-816
itty	-817
oubt	-818
▁ref	-819
▁same	-820
▁tell	-821
gether	-822
▁Nether	-823
▁something	-824
▁therefore	-825
▁Netherfield	-826
ase	-827
▁ey	-828
▁bet	-829
▁civ	-830
▁added	-831
▁least	-832
▁consider	-833
wer	-834
ceed	-835
▁car	-836
▁When	-837
▁half	-838
▁told	-839
▁year	-840
▁since	-841
▁uncle	-842
▁happiness	-843
ere	-844
▁el	-845
▁ind	-846
asion	-847
ently	-848
▁beha	-849
▁both	-850
▁next	-851
▁went	-852
▁Kitty	-853
▁obser	-854
▁surpr	-855
▁answer	-856
▁certainly	-857
ern	-858
ship	-859
▁marry	-860
▁convers	-861
▁towards	-862
▁attention	-863
day	-864
▁pe	-865
empt	-866
onel	-867
ween	-868
olonel	-869
ER	-870
me	-871
▁1	-872
▁gl	-873
▁chi	-874
▁dan	-875
▁nat	-876
▁hard	-877
▁here	-878
▁home	-879
▁opinion	-880
HA	-881
ial	-882
ile	-883
▁My	-884
▁co	-885
▁yet	-886
▁left	-887
▁town	-888
▁inter	-889
▁these	-890
▁while	-891
▁seemed	-892
▁perhaps	-893
▁respect	-894
▁marriage	-895
Oh	-896
ne	-897
The	-898
hes	-899
irc	-900
ute	-901
▁ide	-902
▁nor	-903
▁spo	-904
▁str	-905
▁hour	-906
▁prev	-907
▁woman	-908
ference	-909
▁Colonel	-910
▁mention	-911
▁together	-912
ue	-913
ton	-914
▁est	-915
▁hon	-916
▁sil	-917
▁each	-918
▁sett	-919
▁agree	-920
▁leave	-921
▁between	-922
▁underst	-923
And	-924
▁thr	-925
▁circ	-926
▁mind	-927
▁rest	-928
ferent	-929
▁point	-930
▁resol	-931
▁almost	-932
▁either	-933
ared	-934
▁CHA	-935
▁ext	-936
▁far	-937
▁get	-938
▁best	-939
▁gone	-940
▁three	-941
▁favour	-942
▁rather	-943
▁acquaintance	-944
▁conversation	-945
ck	-946
▁X	-947
ack	-948
ual	-949
ited	-950
nect	-951
▁cous	-952
▁once	-953
▁doubt	-954
▁heart	-955
▁passed	-956
▁occasion	-957
▁received	-958
▁immediately	-959
pl	-960
aut	-961
eor	-962
ger	-963
▁If	-964
▁dep	-965
▁ins	-966
▁min	-967
▁new	-968
aking	-969
ingly	-970
▁Geor	-971
▁upon	-972
▁given	-973
▁short	-974
▁whose	-975
▁others	-976
▁married	-977
▁possible	-978
PT	-979
air	-980
▁em	-981
PTER	-982
aken	-983
ctly	-984
▁cond	-985
▁began	-986
▁means	-987
▁those	-988
▁coming	-989
▁seeing	-990
▁CHAPTER	-991
▁because	-992
Yes	-993
ars	-994
ired	-995
▁dire	-996
▁life	-997
▁meet	-998
▁side	-999
▁stay	-1000
▁party	-1001
ap	-1002
oy	-1003
▁For	-1004
▁abs	-1005
▁hus	-1006
▁opp	-1007
▁wis	-1008
▁Mery	-1009
▁chan	-1010
▁inqu	-1011
▁knew	-1012
▁going	-1013
▁fortun	-1014
▁Meryton	-1015
▁connect	-1016
ff	-1017
But	-1018
its	-1019
band	-1020
▁equ	-1021
▁pur	-1022
ondon	-1023
▁known	-1024
▁London	-1025
▁regard	-1026
▁another	-1027
▁husband	-1028
▁whether	-1029
but	-1030
▁As	-1031
form	-1032
iled	-1033
▁All	-1034
▁act	-1035
▁din	-1036
▁eas	-1037
▁exc	-1038
erest	-1039
ments	-1040
viour	-1041
▁took	-1042
ollect	-1043
▁Pember	-1044
▁friends	-1045
▁Pemberley	-1046
▁behaviour	-1047
._	-1048
My	-1049
▁ke	-1050
aged	-1051
▁fre	-1052
▁able	-1053
▁eyes	-1054
▁gave	-1055
▁lady	-1056
▁wond	-1057
▁general	-1058
▁everything	-1059
ix	-1060
riv	-1061
use	-1062
Your	-1063
ower	-1064
▁There	-1065
▁hands	-1066
▁determ	-1067
▁interest	-1068
app	-1069
uth	-1070
▁forg	-1071
▁pain	-1072
▁sent	-1073
▁spir	-1074
▁course	-1075
▁against	-1076
▁concern	-1077
▁continued	-1078
▁perfectly	-1079
It	-1080
arn	-1081
▁bl	-1082
sequ	-1083
ught	-1084
▁bus	-1085
▁let	-1086
▁idea	-1087
▁list	-1088
▁obli	-1089
▁prob	-1090
▁prom	-1091
▁neigh	-1092
itation	-1093
▁comfort	-1094
▁neighbour	-1095
▁understand	-1096
ife	-1097
ople	-1098
▁hum	-1099
ances	-1100
eness	-1101
▁back	-1102
▁wife	-1103
▁persu	-1104
▁circum	-1105
▁cousin	-1106
▁hardly	-1107
▁honour	-1108
▁daughters	-1109
ef	-1110
ark	-1111
▁gu	-1112
osed	-1113
▁Ros	-1114
▁Sir	-1115
▁mis	-1116
▁What	-1117
▁char	-1118
▁beaut	-1119
▁quest	-1120
▁Rosings	-1121
▁suppose	-1122
▁yourself	-1123
▁agreeable	-1124
kn	-1125
ook	-1126
arce	-1127
ston	-1128
▁How	-1129
▁This	-1130
▁care	-1131
▁else	-1132
▁necess	-1133
▁account	-1134
▁settled	-1135
▁gentleman	-1136
sp	-1137
lves	-1138
oice	-1139
▁ask	-1140
▁hop	-1141
▁inf	-1142
▁wee	-1143
ortun	-1144
▁grat	-1145
ressed	-1146
▁sense	-1147
ossible	-1148
▁accept	-1149
▁compan	-1150
▁dispos	-1151
▁former	-1152
▁people	-1153
▁manners	-1154
▁business	-1155
▁circumst	-1156
▁different	-1157
omm	-1158
ove	-1159
the	-1160
ully	-1161
iment	-1162
owing	-1163
▁door	-1164
▁high	-1165
▁live	-1166
▁sens	-1167
▁girls	-1168
▁pride	-1169
▁advant	-1170
▁called	-1171
arm	-1172
hood	-1173
▁aff	-1174
▁anx	-1175
▁dre	-1176
▁ball	-1177
▁conv	-1178
▁mist	-1179
arcely	-1180
selves	-1181
▁aston	-1182
▁offic	-1183
▁power	-1184
▁George	-1185
▁William	-1186
▁through	-1187
▁returned	-1188
▁impossible	-1189
ler	-1190
▁To	-1191
rely	-1192
antly	-1193
ating	-1194
iable	-1195
▁poss	-1196
▁ought	-1197
▁spoke	-1198
ishment	-1199
▁longer	-1200
▁walked	-1201
▁consequ	-1202
▁carriage	-1203
▁civility	-1204
▁recollect	-1205
lp	-1206
you	-1207
like	-1208
▁bre	-1209
uring	-1210
▁help	-1211
▁imag	-1212
▁pret	-1213
▁repe	-1214
▁situ	-1215
▁endea	-1216
▁disapp	-1217
▁turned	-1218
▁wonder	-1219
▁country	-1220
▁expected	-1221
▁scarcely	-1222
ib	-1223
so	-1224
ory	-1225
oud	-1226
▁At	-1227
▁On	-1228
▁We	-1229
etim	-1230
fter	-1231
ient	-1232
spect	-1233
▁Mary	-1234
▁right	-1235
▁assure	-1236
▁compli	-1237
▁Ladyship	-1238
II	-1239
dd	-1240
▁18	-1241
▁es	-1242
itude	-1243
ourgh	-1244
▁Hert	-1245
▁dare	-1246
▁head	-1247
▁open	-1248
etimes	-1249
▁years	-1250
▁Bourgh	-1251
▁likely	-1252
▁talking	-1253
fordshire	-1254
▁Hertfordshire	-1255
_,	-1256
vo	-1257
aid	-1258
▁aw	-1259
lect	-1260
ster	-1261
▁dra	-1262
▁met	-1263
ached	-1264
ading	-1265
atter	-1266
inced	-1267
▁appro	-1268
▁asked	-1269
▁minut	-1270
▁natur	-1271
▁smile	-1272
▁attent	-1273
▁inform	-1274
▁wished	-1275
▁entered	-1276
▁prevent	-1277
▁gentlemen	-1278
94	-1279
by	-1280
hy	-1281
ple	-1282
row	-1283
▁fl	-1284
▁wa	-1285
raid	-1286
vant	-1287
▁men	-1288
▁put	-1289
▁sor	-1290
ident	-1291
▁incl	-1292
▁requ	-1293
▁child	-1294
▁inquir	-1295
▁Forster	-1296
▁brought	-1297
▁fortune	-1298
▁spirits	-1299
▁handsome	-1300
▁advantage	-1301
▁convinced	-1302
gu	-1303
iew	-1304
▁ra	-1305
know	-1306
onth	-1307
ting	-1308
▁gra	-1309
iting	-1310
ually	-1311
▁near	-1312
▁real	-1313
▁table	-1314
▁write	-1315
ination	-1316
▁talked	-1317
▁pleased	-1318
▁situation	-1319
▁sometimes	-1320
ren	-1321
uct	-1322
ched	-1323
cing	-1324
lips	-1325
oint	-1326
urst	-1327
yond	-1328
▁che	-1329
aster	-1330
ffect	-1331
▁four	-1332
▁glad	-1333
▁sort	-1334
▁impro	-1335
▁afraid	-1336
▁engage	-1337
▁matter	-1338
▁feeling	-1339
▁minutes	-1340
▁believed	-1341
zw	-1342
ari	-1343
cri	-1344
opy	-1345
rud	-1346
ager	-1347
ided	-1348
itzw	-1349
▁Phi	-1350
▁exa	-1351
▁1894	-1352
▁deal	-1353
▁play	-1354
ending	-1355
▁After	-1356
▁Allen	-1357
▁Fitzw	-1358
▁charm	-1359
▁conce	-1360
▁frequ	-1361
▁beyond	-1362
▁Philips	-1363
▁amiable	-1364
▁engaged	-1365
▁satisfa	-1366
▁serious	-1367
▁surprise	-1368
▁everybody	-1369
▁Fitzwilliam	-1370
]]	-1371
▁]	-1372
eng	-1373
ons	-1374
par	-1375
rod	-1376
Copy	-1377
aded	-1378
ures	-1379
wise	-1380
▁enc	-1381
oured	-1382
redit	-1383
▁case	-1384
▁self	-1385
▁among	-1386
▁night	-1387
▁small	-1388
▁sorry	-1389
knowled	-1390
▁introd	-1391
▁saying	-1392
▁strong	-1393
▁things	-1394
▁wishes	-1395
Copyright	-1396
▁acknowled	-1397
▁satisfied	-1398
▁disappoint	-1399
gr	-1400
ian	-1401
ior	-1402
ult	-1403
▁[_	-1404
._]]	-1405
airs	-1406
over	-1407
will	-1408
▁tru	-1409
fully	-1410
ities	-1411
rival	-1412
wered	-1413
▁With	-1414
▁also	-1415
▁poor	-1416
▁prop	-1417
ousand	-1418
▁Hurst	-1419
▁allow	-1420
▁eager	-1421
▁usual	-1422
▁merely	-1423
▁neither	-1424
▁silence	-1425
▁answered	-1426
▁thousand	-1427
▁surprised	-1428
▁determined	-1429
▁invitation	-1430
▁themselves	-1431
br	-1432
eas	-1433
ses	-1434
uri	-1435
fast	-1436
iece	-1437
rupt	-1438
▁jud	-1439
▁sum	-1440
▁ten	-1441
▁tri	-1442
ounds	-1443
▁diff	-1444
▁fear	-1445
▁fine	-1446
▁name	-1447
▁soci	-1448
▁accom	-1449
▁indif	-1450
▁taken	-1451
▁dinner	-1452
▁import	-1453
▁master	-1454
▁slight	-1455
▁attempt	-1456
▁officers	-1457
▁speaking	-1458
acy	-1459
ney	-1460
old	-1461
laim	-1462
▁Not	-1463
▁air	-1464
▁eld	-1465
▁ele	-1466
▁lar	-1467
▁pat	-1468
cious	-1469
eared	-1470
ength	-1471
usion	-1472
▁expl	-1473
▁five	-1474
▁news	-1475
▁view	-1476
▁Their	-1477
▁admir	-1478
▁dance	-1479
▁early	-1480
▁equal	-1481
▁super	-1482
▁credit	-1483
▁depend	-1484
▁design	-1485
▁length	-1486
▁making	-1487
▁second	-1488
▁within	-1489
▁arrival	-1490
▁exactly	-1491
▁forward	-1492
▁appeared	-1493
▁opportun	-1494
▁necessary	-1495
▁afterwards	-1496
▁particularly	-1497
If	-1498
No	-1499
og	-1500
hap	-1501
ict	-1502
und	-1503
▁Th	-1504
▁ro	-1505
What	-1506
oved	-1507
ying	-1508
▁cor	-1509
▁def	-1510
▁hur	-1511
▁ran	-1512
▁ste	-1513
ience	-1514
▁days	-1515
enance	-1516
itting	-1517
▁attach	-1518
▁exceed	-1519
▁resent	-1520
▁resolved	-1521
▁sensible	-1522
▁endeavour	-1523
▁instantly	-1524
to	-1525
▁(	-1526
uck	-1527
▁XX	-1528
▁ap	-1529
▁cl	-1530
orth	-1531
race	-1532
▁fan	-1533
▁fin	-1534
▁use	-1535
▁yes	-1536
ified	-1537
itted	-1538
▁Chap	-1539
▁curi	-1540
▁earn	-1541
▁hast	-1542
▁keep	-1543
▁alone	-1544
▁break	-1545
▁bring	-1546
▁month	-1547
▁offer	-1548
▁thing	-1549
▁toler	-1550
▁words	-1551
▁proper	-1552
▁Chapter	-1553
▁earnest	-1554
▁society	-1555
▁repeated	-1556
▁appearance	-1557
▁compliment	-1558
▁consequence	-1559
▁countenance	-1560
▁neighbourhood	-1561
_.	-1562
▁2	-1563
ote	-1564
ron	-1565
That	-1566
come	-1567
ross	-1568
▁tem	-1569
▁why	-1570
iving	-1571
ready	-1572
usten	-1573
utely	-1574
▁Your	-1575
▁disg	-1576
▁draw	-1577
▁lost	-1578
▁suff	-1579
▁thus	-1580
▁week	-1581
▁stran	-1582
▁Austen	-1583
▁comple	-1584
▁except	-1585
▁intell	-1586
▁recomm	-1587
▁Heading	-1588
▁anybody	-1589
▁looking	-1590
▁obliged	-1591
▁servant	-1592
▁kindness	-1593
▁particular	-1594
▁opportunity	-1595
▁astonishment	-1596
He	-1597
up	-1598
:--	-1599
How	-1600
ken	-1601
here	-1602
king	-1603
▁cap	-1604
▁sir	-1605
irely	-1606
ution	-1607
▁choo	-1608
▁need	-1609
▁sudd	-1610
▁summ	-1611
▁incre	-1612
▁intim	-1613
▁laugh	-1614
▁liked	-1615
▁meant	-1616
▁reply	-1617
▁seems	-1618
▁beauty	-1619
▁encour	-1620
▁highly	-1621
▁joined	-1622
▁address	-1623
▁already	-1624
▁assured	-1625
▁conduct	-1626
▁natural	-1627
▁receive	-1628
▁entirely	-1629
▁intellig	-1630
▁observed	-1631
▁breakfast	-1632
▁mentioned	-1633
▁disposition	-1634
▁circumstances	-1635
Mr	-1636
ma	-1637
mb	-1638
ene	-1639
joy	-1640
ull	-1641
uns	-1642
----	-1643
ents	-1644
hend	-1645
inci	-1646
oney	-1647
pose	-1648
uced	-1649
▁ago	-1650
▁pol	-1651
▁sho	-1652
▁wat	-1653
ailed	-1654
▁bear	-1655
▁face	-1656
▁sche	-1657
▁sing	-1658
rehend	-1659
▁chief	-1660
▁hours	-1661
▁truth	-1662
▁effect	-1663
▁nature	-1664
▁sudden	-1665
▁absence	-1666
▁allowed	-1667
▁anxious	-1668
▁greater	-1669
▁knowing	-1670
▁younger	-1671
▁regiment	-1672
▁thoughts	-1673
▁whatever	-1674
▁expressed	-1675
▁interrupt	-1676
▁attachment	-1677
▁attentions	-1678
▁exceedingly	-1679
▁information	-1680
▁satisfaction	-1681
ool	-1682
ows	-1683
uce	-1684
▁Do	-1685
grat	-1686
used	-1687
▁cle	-1688
▁deg	-1689
▁fix	-1690
▁hor	-1691
▁mot	-1692
▁pra	-1693
ccess	-1694
ering	-1695
ising	-1696
ively	-1697
night	-1698
▁prof	-1699
ceived	-1700
▁const	-1701
▁doing	-1702
▁enjoy	-1703
▁sever	-1704
▁spite	-1705
unsford	-1706
▁assist	-1707
▁common	-1708
▁during	-1709
▁easily	-1710
▁giving	-1711
▁pretty	-1712
▁princi	-1713
▁propos	-1714
▁regret	-1715
▁silent	-1716
▁temper	-1717
▁imagine	-1718
▁success	-1719
▁walking	-1720
▁happened	-1721
▁pleasant	-1722
▁question	-1723
▁supposed	-1724
▁admiration	-1725
my	-1726
ail	-1727
man	-1728
she	-1729
▁No	-1730
▁St	-1731
▁ut	-1732
alth	-1733
erby	-1734
peci	-1735
void	-1736
▁Had	-1737
▁fur	-1738
▁got	-1739
▁gri	-1740
▁par	-1741
ality	-1742
aving	-1743
tered	-1744
▁easy	-1745
▁term	-1746
▁true	-1747
▁wind	-1748
gratul	-1749
▁Derby	-1750
▁civil	-1751
▁concl	-1752
▁decla	-1753
▁match	-1754
▁money	-1755
▁stand	-1756
▁admire	-1757
▁direct	-1758
▁especi	-1759
▁latter	-1760
▁living	-1761
▁wholly	-1762
▁further	-1763
▁several	-1764
▁visitor	-1765
▁children	-1766
▁followed	-1767
▁pleasing	-1768
▁probably	-1769
▁relations	-1770
▁Derbyshire	-1771
▁especially	-1772
bar	-1773
hew	-1774
ild	-1775
les	-1776
▁Oh	-1777
▁ve	-1778
ages	-1779
cell	-1780
semb	-1781
▁Let	-1782
▁fal	-1783
▁ign	-1784
▁son	-1785
▁val	-1786
anity	-1787
inary	-1788
ouble	-1789
uthor	-1790
▁fair	-1791
▁join	-1792
▁send	-1793
▁susp	-1794
▁warm	-1795
idered	-1796
▁begin	-1797
▁extra	-1798
▁ignor	-1799
▁large	-1800
▁occur	-1801
▁thank	-1802
▁trust	-1803
▁voice	-1804
ibility	-1805
righton	-1806
▁author	-1807
▁change	-1808
▁curios	-1809
▁degree	-1810
▁listen	-1811
▁pounds	-1812
▁remain	-1813
▁hearing	-1814
▁purpose	-1815
▁Brighton	-1816
▁Hunsford	-1817
▁attended	-1818
▁mistaken	-1819
▁persuaded	-1820
▁acquainted	-1821
▁considered	-1822
of	-1823
sh	-1824
su	-1825
She	-1826
hum	-1827
nat	-1828
oun	-1829
▁pu	-1830
▁ri	-1831
akes	-1832
ives	-1833
olog	-1834
phew	-1835
▁vex	-1836
brary	-1837
▁cold	-1838
▁eleg	-1839
▁jour	-1840
▁sake	-1841
▁work	-1842
▁assur	-1843
▁deser	-1844
▁false	-1845
▁fancy	-1846
▁hopes	-1847
▁impat	-1848
▁proud	-1849
▁relie	-1850
▁state	-1851
▁anyone	-1852
▁compar	-1853
▁descri	-1854
▁nephew	-1855
▁wanted	-1856
▁company	-1857
▁conceal	-1858
▁confess	-1859
▁dancing	-1860
▁journey	-1861
▁library	-1862
▁meeting	-1863
▁partial	-1864
▁proceed	-1865
▁difficul	-1866
▁directly	-1867
▁marrying	-1868
▁remained	-1869
▁superior	-1870
▁congratul	-1871
▁curiosity	-1872
▁delighted	-1873
▁following	-1874
▁fortnight	-1875
▁gratitude	-1876
▁inquiries	-1877
▁prevented	-1878
▁comprehend	-1879
▁frequently	-1880
ec	-1881
ead	-1882
eed	-1883
iet	-1884
ran	-1885
ging	-1886
ison	-1887
urch	-1888
your	-1889
▁col	-1890
▁wel	-1891
arest	-1892
ledge	-1893
osing	-1894
▁book	-1895
▁evil	-1896
▁grie	-1897
▁mile	-1898
aching	-1899
▁Eliza	-1900
▁above	-1901
▁absol	-1902
▁avoid	-1903
▁creat	-1904
▁event	-1905
▁spent	-1906
▁women	-1907
ability	-1908
ication	-1909
▁desire	-1910
▁excell	-1911
▁health	-1912
▁praise	-1913
▁remark	-1914
▁dislike	-1915
▁entreat	-1916
▁increas	-1917
▁possess	-1918
▁trouble	-1919
▁distress	-1920
▁intended	-1921
▁relation	-1922
▁remember	-1923
▁thinking	-1924
▁favourite	-1925
▁knowledge	-1926
▁delightful	-1927
▁expression	-1928
▁importance	-1929
als	-1930
ili	-1931
ray	-1932
rew	-1933
▁vi	-1934
This	-1935
hens	-1936
iety	-1937
ling	-1938
ploy	-1939
reet	-1940
uded	-1941
what	-1942
▁art	-1943
▁dro	-1944
▁neg	-1945
▁ord	-1946
▁rej	-1947
esday	-1948
ested	-1949
gment	-1950
itten	-1951
pleas	-1952
rived	-1953
▁That	-1954
▁full	-1955
▁mort	-1956
▁plan	-1957
▁quar	-1958
▁stru	-1959
icient	-1960
idence	-1961
rehens	-1962
▁Every	-1963
▁contr	-1964
▁delic	-1965
▁fixed	-1966
▁guard	-1967
▁niece	-1968
▁terms	-1969
▁wrote	-1970
▁eldest	-1971
▁employ	-1972
▁forget	-1973
▁months	-1974
▁notice	-1975
▁drawing	-1976
▁sitting	-1977
▁written	-1978
▁greatest	-1979
▁listened	-1980
▁promised	-1981
▁whenever	-1982
▁inclination	-1983
▁understanding	-1984
az	-1985
ex	-1986
ey	-1987
ope	-1988
udi	-1989
Well	-1990
adam	-1991
aria	-1992
ical	-1993
iced	-1994
iful	-1995
reme	-1996
▁Car	-1997
▁run	-1998
▁six	-1999
ardon	-2000
aught	-2001
ndeed	-2002
ption	-2003
▁desp	-2004
▁drew	-2005
▁fall	-2006
▁late	-2007
▁used	-2008
▁viol	-2009
▁wait	-2010
ission	-2011
licity	-2012
resent	-2013
vation	-2014
▁Maria	-2015
▁alarm	-2016
▁amuse	-2017
▁cause	-2018
▁desir	-2019
▁hoped	-2020
▁madam	-2021
▁ready	-2022
▁separ	-2023
▁tempt	-2024
▁times	-2025
▁affair	-2026
▁apolog	-2027
▁commun	-2028
▁danger	-2029
▁estate	-2030
▁forced	-2031
▁accompl	-2032
▁equally	-2033
▁extreme	-2034
▁partner	-2035
▁affected	-2036
▁receiving	-2037
▁connection	-2038
▁engagement	-2039
▁particulars	-2040
▁acknowledged	-2041
▁affectionate	-2042
▁V	-2043
abl	-2044
ted	-2045
vel	-2046
▁An	-2047
▁bo	-2048
barr	-2049
enty	-2050
eper	-2051
hile	-2052
well	-2053
▁den	-2054
▁dut	-2055
▁inj	-2056
▁mer	-2057
osure	-2058
▁fond	-2059
▁loss	-2060
▁none	-2061
▁paid	-2062
▁tran	-2063
erhaps	-2064
▁comes	-2065
▁light	-2066
▁quiet	-2067
▁round	-2068
barrass	-2069
fulness	-2070
▁chance	-2071
▁choose	-2072
▁forgot	-2073
▁imprud	-2074
▁instru	-2075
▁report	-2076
▁scheme	-2077
▁summer	-2078
▁taking	-2079
▁houseke	-2080
▁instead	-2081
▁princip	-2082
▁profess	-2083
▁reached	-2084
▁related	-2085
▁charming	-2086
▁objection	-2087
▁resolution	-2088
▁connections	-2089
▁circumstance	-2090
▁intelligence	-2091
lu	-2092
▁‘	-2093
eem	-2094
ici	-2095
kes	-2096
mor	-2097
ump	-2098
▁ed	-2099
aste	-2100
ding	-2101
edly	-2102
ency	-2103
happ	-2104
▁ang	-2105
▁bad	-2106
▁led	-2107
▁old	-2108
▁pub	-2109
▁try	-2110
arson	-2111
fered	-2112
▁----	-2113
▁From	-2114
▁amaz	-2115
▁exam	-2116
▁hint	-2117
▁park	-2118
▁pict	-2119
▁prep	-2120
▁vain	-2121
formed	-2122
stairs	-2123
▁blame	-2124
▁pause	-2125
▁plain	-2126
▁weeks	-2127
▁worth	-2128
▁esteem	-2129
▁motive	-2130
▁opened	-2131
▁smiled	-2132
▁unless	-2133
arsonage	-2134
▁anxiety	-2135
▁capable	-2136
▁evident	-2137
▁leaving	-2138
▁readily	-2139
▁reflect	-2140
▁felicity	-2141
▁persuade	-2142
▁prospect	-2143
▁concerned	-2144
▁entertain	-2145
▁excellent	-2146
▁intention	-2147
▁sentiment	-2148
▁absolutely	-2149
▁resentment	-2150
▁expectation	-2151
We	-2152
do	-2153
gn	-2154
▁3	-2155
ali	-2156
ash	-2157
iod	-2158
ony	-2159
pan	-2160
▁sy	-2161
▁“_	-2162
When	-2163
atur	-2164
iana	-2165
ides	-2166
ring	-2167
ucky	-2168
▁beh	-2169
▁eye	-2170
▁mod	-2171
▁mus	-2172
▁pun	-2173
▁rid	-2174
▁tre	-2175
agree	-2176
ative	-2177
iling	-2178
using	-2179
▁ease	-2180
▁fact	-2181
▁indi	-2182
▁kept	-2183
▁prod	-2184
▁prot	-2185
▁tone	-2186
▁Satur	-2187
▁angry	-2188
▁dread	-2189
▁grate	-2190
▁polit	-2191
▁quick	-2192
▁repro	-2193
▁reser	-2194
▁scene	-2195
▁sight	-2196
▁taste	-2197
▁treat	-2198
▁assemb	-2199
▁dining	-2200
▁period	-2201
▁proved	-2202
▁unhapp	-2203
▁vanity	-2204
▁compass	-2205
▁Saturday	-2206
▁accepted	-2207
▁complete	-2208
▁disagree	-2209
▁likewise	-2210
▁addressed	-2211
▁embarrass	-2212
▁generally	-2213
▁otherwise	-2214
▁recommend	-2215
▁politeness	-2216
▁interesting	-2217
▁indifference	-2218
▁disappointment	-2219
be	-2220
gg	-2221
gy	-2222
▁4	-2223
ath	-2224
new	-2225
rit	-2226
▁ir	-2227
illy	-2228
omin	-2229
ooks	-2230
▁age	-2231
▁bel	-2232
▁esc	-2233
▁pay	-2234
▁pec	-2235
▁sim	-2236
▁win	-2237
hamed	-2238
ieces	-2239
oline	-2240
ously	-2241
where	-2242
▁Well	-2243
▁card	-2244
▁dine	-2245
▁fool	-2246
▁gall	-2247
▁step	-2248
▁vent	-2249
▁weak	-2250
bation	-2251
▁chose	-2252
▁convi	-2253
▁influ	-2254
▁miles	-2255
▁share	-2256
▁tried	-2257
▁advice	-2258
▁afford	-2259
▁became	-2260
▁choice	-2261
▁colour	-2262
▁consol	-2263
▁excess	-2264
▁formed	-2265
▁lively	-2266
▁nobody	-2267
▁public	-2268
▁spoken	-2269
▁unwill	-2270
▁window	-2271
ordinary	-2272
▁ashamed	-2273
▁consent	-2274
▁promise	-2275
▁removed	-2276
▁suspect	-2277
▁disgrace	-2278
▁distance	-2279
▁ignorant	-2280
▁suddenly	-2281
▁upstairs	-2282
▁youngest	-2283
▁companion	-2284
▁composure	-2285
▁encourage	-2286
▁questions	-2287
▁represent	-2288
▁tolerable	-2289
▁compassion	-2290
▁conviction	-2291
▁housekeeper	-2292
▁indifferent	-2293
▁extraordinary	-2294
Do	-2295
In	-2296
Not	-2297
ech	-2298
esc	-2299
fer	-2300
uff	-2301
cked	-2302
erty	-2303
reed	-2304
weet	-2305
▁XXX	-2306
▁cal	-2307
▁dri	-2308
▁fut	-2309
▁joy	-2310
▁sit	-2311
▁suc	-2312
▁tra	-2313
▁wit	-2314
giana	-2315
ommon	-2316
rance	-2317
riety	-2318
▁duty	-2319
▁fart	-2320
▁furn	-2321
▁lear	-2322
▁pres	-2323
▁priv	-2324
▁rank	-2325
▁road	-2326
▁says	-2327
▁stri	-2328
▁unre	-2329
Indeed	-2330
morrow	-2331
▁arran	-2332
▁cheer	-2333
▁claim	-2334
▁dress	-2335
▁indul	-2336
▁mater	-2337
▁renew	-2338
▁sweet	-2339
▁uneas	-2340
▁worse	-2341
▁wrong	-2342
▁belief	-2343
▁future	-2344
▁humour	-2345
▁misery	-2346
▁seated	-2347
▁speech	-2348
▁suffer	-2349
▁suspic	-2350
▁triump	-2351
▁winter	-2352
▁Lucases	-2353
▁arrived	-2354
▁condesc	-2355
▁dearest	-2356
▁decided	-2357
▁flatter	-2358
▁justice	-2359
▁letters	-2360
▁neglect	-2361
▁opening	-2362
▁picture	-2363
▁succeed	-2364
▁Caroline	-2365
▁declared	-2366
▁disposed	-2367
▁judgment	-2368
▁uncommon	-2369
▁Georgiana	-2370
▁apprehens	-2371
▁beautiful	-2372
▁connected	-2373
▁extremely	-2374
▁fortunate	-2375
▁prevailed	-2376
▁comparison	-2377
▁observation	-2378
▁disagreeable	-2379
.’	-2380
IN	-2381
To	-2382
ho	-2383
;--	-2384
pid	-2385
ror	-2386
uli	-2387
▁Sc	-2388
▁XL	-2389
▁et	-2390
▁la	-2391
▁pa	-2392
ames	-2393
ates	-2394
ines	-2395
pped	-2396
teen	-2397
▁Why	-2398
▁awk	-2399
▁ben	-2400
▁ear	-2401
▁hig	-2402
▁rev	-2403
▁wed	-2404
There	-2405
arent	-2406
arily	-2407
ertin	-2408
isure	-2409
there	-2410
▁Kent	-2411
▁Such	-2412
▁debt	-2413
▁decl	-2414
▁deep	-2415
▁educ	-2416
▁gard	-2417
▁pron	-2418
▁prov	-2419
▁rejo	-2420
▁rend	-2421
▁rich	-2422
▁stud	-2423
▁valu	-2424
aining	-2425
humour	-2426
ifying	-2427
▁aware	-2428
▁boast	-2429
▁exert	-2430
▁hurry	-2431
▁incon	-2432
▁learn	-2433
▁lived	-2434
▁looks	-2435
▁oppos	-2436
▁stood	-2437
▁watch	-2438
retched	-2439
▁asking	-2440
▁behind	-2441
▁establ	-2442
▁excuse	-2443
▁famili	-2444
▁happen	-2445
▁learnt	-2446
▁parted	-2447
▁patron	-2448
▁peculi	-2449
▁please	-2450
▁prefer	-2451
▁ration	-2452
▁struck	-2453
▁thanks	-2454
▁unable	-2455
▁awkward	-2456
▁calling	-2457
▁conject	-2458
▁eagerly	-2459
▁elegant	-2460
▁farther	-2461
▁greatly	-2462
▁leisure	-2463
▁meaning	-2464
▁perform	-2465
▁persons	-2466
▁reading	-2467
▁request	-2468
▁wedding	-2469
▁welcome	-2470
▁wishing	-2471
▁writing	-2472
▁accident	-2473
▁contempt	-2474
▁creature	-2475
▁deceived	-2476
▁entrance	-2477
▁impertin	-2478
▁occurred	-2479
▁probable	-2480
▁visitors	-2481
▁Parsonage	-2482
▁assurance	-2483
▁difficult	-2484
▁forgotten	-2485
▁gratified	-2486
▁influence	-2487
▁principal	-2488
▁tolerably	-2489
▁astonished	-2490
▁reasonable	-2491
▁respectable	-2492
▁consideration	-2493
▁*	-2494
III	-2495
_.”	-2496
com	-2497
law	-2498
lay	-2499
lig	-2500
ode	-2501
orn	-2502
pon	-2503
rig	-2504
val	-2505
▁bu	-2506
▁er	-2507
▁ru	-2508
hame	-2509
iest	-2510
land	-2511
play	-2512
vell	-2513
▁One	-2514
▁etc	-2515
▁tea	-2516
▁unf	-2517
▁unl	-2518
▁var	-2519
▁vol	-2520
Lizzy	-2521
ceive	-2522
ourse	-2523
▁clot	-2524
▁fell	-2525
▁forb	-2526
▁lose	-2527
▁misf	-2528
▁pray	-2529
▁suit	-2530
▁tall	-2531
▁tend	-2532
▁thir	-2533
▁unex	-2534
▁whis	-2535
ounced	-2536
overed	-2537
terday	-2538
▁alter	-2539
▁anger	-2540
▁benef	-2541
▁books	-2542
▁dared	-2543
▁eight	-2544
▁fault	-2545
▁grave	-2546
▁ideas	-2547
▁judge	-2548
▁noble	-2549
▁provo	-2550
▁shame	-2551
▁spend	-2552
▁story	-2553
▁Street	-2554
▁Though	-2555
▁accord	-2556
▁assert	-2557
▁danced	-2558
▁ground	-2559
▁marked	-2560
▁pardon	-2561
▁reject	-2562
▁relief	-2563
▁single	-2564
▁sooner	-2565
▁spirit	-2566
lication	-2567
▁Nothing	-2568
▁applied	-2569
▁clothes	-2570
▁display	-2571
▁exclaim	-2572
▁finding	-2573
▁improve	-2574
▁painful	-2575
▁turning	-2576
▁accompan	-2577
▁frequent	-2578
▁grateful	-2579
▁standing	-2580
▁stranger	-2581
▁determine	-2582
▁enjoyment	-2583
▁immediate	-2584
▁misfortun	-2585
▁supposing	-2586
▁yesterday	-2587
▁difference	-2588
▁distressed	-2589
▁partiality	-2590
▁understood	-2591
▁considering	-2592
▁possibility	-2593
▁recollected	-2594
▁interference	-2595
Is	-2596
tw	-2597
Yet	-2598
apt	-2599
att	-2600
cha	-2601
him	-2602
irt	-2603
ize	-2604
onc	-2605
▁Ch	-2606
▁De	-2607
▁Is	-2608
▁Tu	-2609
▁ow	-2610
They	-2611
Upon	-2612
angu	-2613
aven	-2614
enny	-2615
hich	-2616
ibly	-2617
ingu	-2618
just	-2619
usal	-2620
▁bit	-2621
▁bow	-2622
▁cru	-2623
▁due	-2624
▁fif	-2625
▁hab	-2626
▁inn	-2627
▁lau	-2628
▁low	-2629
▁pri	-2630
▁sto	-2631
▁tou	-2632
▁una	-2633
inson	-2634
omest	-2635
▁blus	-2636
▁cler	-2637
▁deli	-2638
▁fash	-2639
▁hall	-2640
▁rapt	-2641
▁tear	-2642
▁wild	-2643
▁wood	-2644
iously	-2645
itated	-2646
uction	-2647
▁Denny	-2648
▁court	-2649
▁delay	-2650
▁elope	-2651
▁enter	-2652
▁folly	-2653
▁music	-2654
▁press	-2655
▁remem	-2656
▁silly	-2657
▁solic	-2658
▁twice	-2659
▁yours	-2660
natured	-2661
▁abomin	-2662
▁agreed	-2663
▁defect	-2664
▁depart	-2665
▁garden	-2666
▁height	-2667
▁indign	-2668
▁insuff	-2669
▁nieces	-2670
▁preser	-2671
▁secure	-2672
▁Tuesday	-2673
▁admired	-2674
▁courage	-2675
▁parties	-2676
▁shortly	-2677
▁unhappy	-2678
▁whisper	-2679
▁actually	-2680
▁bringing	-2681
▁constant	-2682
▁delicacy	-2683
▁inconven	-2684
▁intimate	-2685
▁required	-2686
▁sentence	-2687
▁servants	-2688
▁wretched	-2689
▁amusement	-2690
▁beginning	-2691
▁believing	-2692
▁education	-2693
▁naturally	-2694
▁perceived	-2695
▁unwilling	-2696
▁assistance	-2697
▁favourable	-2698
▁application	-2699
▁approaching	-2700
▁comfortable	-2701
▁engagements	-2702
▁expressions	-2703
▁accomplished	-2704
▁apprehension	-2705
▁disappointed	-2706
▁occasionally	-2707
▁recollection	-2708
▁congratulations	-2709
ape	-2710
ics	-2711
ify	-2712
irm	-2713
uss	-2714
Miss	-2715
amma	-2716
elve	-2717
ghed	-2718
ises	-2719
ldom	-2720
lour	-2721
this	-2722
vice	-2723
▁ann	-2724
▁bro	-2725
▁fig	-2726
▁hes	-2727
▁num	-2728
▁tot	-2729
ement	-2730
ented	-2731
inded	-2732
ining	-2733
isted	-2734
ivers	-2735
oving	-2736
rigin	-2737
which	-2738
▁Scot	-2739
▁argu	-2740
▁feat	-2741
▁fema	-2742
▁fire	-2743
▁free	-2744
▁lips	-2745
▁post	-2746
▁scru	-2747
▁sign	-2748
▁sour	-2749
▁trif	-2750
▁vari	-2751
erable	-2752
though	-2753
voured	-2754
▁While	-2755
▁aloud	-2756
▁bless	-2757
▁coach	-2758
▁compl	-2759
▁corre	-2760
▁cross	-2761
▁drove	-2762
▁elder	-2763
▁fears	-2764
▁fresh	-2765
▁invol	-2766
▁loved	-2767
▁pursu	-2768
▁shook	-2769
▁views	-2770
▁wants	-2771
▁youth	-2772
▁attend	-2773
▁caught	-2774
▁chaise	-2775
▁dances	-2776
▁entail	-2777
▁explan	-2778
▁feared	-2779
▁follow	-2780
▁gained	-2781
▁income	-2782
▁itself	-2783
▁lately	-2784
▁origin	-2785
▁parish	-2786
▁purcha	-2787
▁relate	-2788
▁secret	-2789
▁seldom	-2790
▁steady	-2791
▁supper	-2792
▁twelve	-2793
▁amongst	-2794
▁collect	-2795
▁cousins	-2796
▁excited	-2797
▁grieved	-2798
▁impress	-2799
▁inquiry	-2800
▁invited	-2801
▁laughed	-2802
▁moments	-2803
▁passing	-2804
▁private	-2805
▁quarter	-2806
▁satisfy	-2807
▁strange	-2808
▁support	-2809
▁addition	-2810
▁attached	-2811
▁displeas	-2812
▁distingu	-2813
▁dreadful	-2814
▁finished	-2815
▁generous	-2816
▁goodness	-2817
▁inclined	-2818
▁moreover	-2819
▁opposite	-2820
▁peculiar	-2821
▁produced	-2822
▁proposal	-2823
▁rational	-2824
▁smallest	-2825
▁unexpect	-2826
▁confusion	-2827
▁desirable	-2828
▁earnestly	-2829
▁elopement	-2830
▁increased	-2831
▁introduce	-2832
▁necessity	-2833
▁observing	-2834
▁returning	-2835
▁seriously	-2836
▁confidence	-2837
▁instrument	-2838
▁neighbours	-2839
▁objections	-2840
▁sentiments	-2841
▁compliments	-2842
▁consolation	-2843
▁introduction	-2844
▁relationship	-2845
cl	-2846
con	-2847
did	-2848
eyn	-2849
hil	-2850
ift	-2851
ilt	-2852
ism	-2853
lir	-2854
ole	-2855
rim	-2856
ule	-2857
yle	-2858
▁By	-2859
▁So	-2860
▁av	-2861
▁dr	-2862
▁id	-2863
▁ma	-2864
▁ur	-2865
With	-2866
ambt	-2867
hest	-2868
ific	-2869
lemn	-2870
olds	-2871
recy	-2872
ront	-2873
some	-2874
tens	-2875
ular	-2876
uted	-2877
▁Yet	-2878
▁bes	-2879
▁cou	-2880
▁med	-2881
▁pit	-2882
▁unw	-2883
aging	-2884
alous	-2885
igned	-2886
irtue	-2887
iture	-2888
liest	-2889
lying	-2890
overy	-2891
▁Here	-2892
▁Lord	-2893
▁Reyn	-2894
▁anim	-2895
▁bene	-2896
▁calm	-2897
▁caut	-2898
▁fast	-2899
▁flir	-2900
▁luck	-2901
▁mine	-2902
▁note	-2903
▁perm	-2904
▁quit	-2905
▁safe	-2906
▁sick	-2907
▁stre	-2908
ambton	-2909
asions	-2910
fortun	-2911
▁along	-2912
▁attri	-2913
▁clear	-2914
▁close	-2915
▁cordi	-2916
▁debts	-2917
▁dwell	-2918
▁gives	-2919
▁gover	-2920
▁knows	-2921
▁langu	-2922
▁lines	-2923
▁oblig	-2924
▁pract	-2925
▁speed	-2926
▁start	-2927
▁study	-2928
▁style	-2929
▁tears	-2930
▁utter	-2931
▁value	-2932
▁yield	-2933
lection	-2934
▁charge	-2935
▁church	-2936
▁compla	-2937
▁distin	-2938
▁escape	-2939
▁induce	-2940
▁quarre	-2941
▁settle	-2942
▁solemn	-2943
▁twenty	-2944
▁utmost	-2945
▁virtue	-2946
oubtedly	-2947
▁Bennets	-2948
▁Lambton	-2949
▁Perhaps	-2950
▁arrange	-2951
▁attract	-2952
▁chiefly	-2953
▁commend	-2954
▁declare	-2955
▁discuss	-2956
▁disgust	-2957
▁fashion	-2958
▁highest	-2959
▁hurried	-2960
▁inquire	-2961
▁observe	-2962
▁offered	-2963
▁recover	-2964
▁secrecy	-2965
▁sincere	-2966
▁smiling	-2967
▁staying	-2968
▁thither	-2969
▁travell	-2970
▁triumph	-2971
▁unlucky	-2972
▁unpleas	-2973
▁waiting	-2974
▁Reynolds	-2975
▁admitted	-2976
▁communic	-2977
▁contrary	-2978
▁gracious	-2979
▁happiest	-2980
▁heartily	-2981
▁informed	-2982
▁intimacy	-2983
▁laughing	-2984
▁material	-2985
▁overcome	-2986
▁prepared	-2987
▁rendered	-2988
▁subjects	-2989
▁vexation	-2990
▁amazement	-2991
▁attentive	-2992
▁authority	-2993
▁concluded	-2994
▁direction	-2995
▁explained	-2996
▁furniture	-2997
▁important	-2998
▁imprudent	-2999
▁listening	-3000
▁proceeded	-3001
▁proposals	-3002
▁friendship	-3003
▁impatience	-3004
▁increasing	-3005
▁preference	-3006
▁pronounced	-3007
▁remarkably	-3008
▁endeavoured	-3009
▁excessively	-3010
▁probability	-3011
▁consequently	-3012
▁considerable	-3013
▁insufficient	-3014
▁interruption	-3015
▁communication	-3016
▁embarrassment	-3017
▁encouragement	-3018
/*	-3019
IV	-3020
VI	-3021
mp	-3022
oc	-3023
His	-3024
Why	-3025
amp	-3026
bed	-3027
edn	-3028
enk	-3029
erc	-3030
ets	-3031
ett	-3032
ier	-3033
omy	-3034
oor	-3035
ric	-3036
sed	-3037
vag	-3038
▁*/	-3039
▁/*	-3040
▁ef	-3041
▁te	-3042
Good	-3043
Lady	-3044
Very	-3045
anch	-3046
crif	-3047
erem	-3048
icip	-3049
ital	-3050
ized	-3051
judi	-3052
look	-3053
read	-3054
rest	-3055
rist	-3056
▁Are	-3057
▁Eng	-3058
▁ant	-3059
▁div	-3060
▁gen	-3061
▁mem	-3062
▁obt	-3063
▁suf	-3064
asure	-3065
bered	-3066
eased	-3067
ences	-3068
issed	-3069
itely	-3070
known	-3071
onday	-3072
pered	-3073
spond	-3074
unday	-3075
▁Jenk	-3076
▁Then	-3077
▁Wedn	-3078
▁bore	-3079
▁dest	-3080
▁disd	-3081
▁dish	-3082
▁hate	-3083
▁hold	-3084
▁hund	-3085
▁laid	-3086
▁lane	-3087
▁lead	-3088
▁line	-3089
▁nons	-3090
▁past	-3091
▁pity	-3092
▁proc	-3093
▁prud	-3094
▁seve	-3095
▁show	-3096
▁spot	-3097
▁sugg	-3098
▁wise	-3099
apable	-3100
church	-3101
ctions	-3102
judice	-3103
llable	-3104
ortion	-3105
ounter	-3106
▁These	-3107
▁carry	-3108
▁cerem	-3109
▁cruel	-3110
▁death	-3111
▁error	-3112
▁exerc	-3113
▁haste	-3114
▁liber	-3115
▁likes	-3116
▁makes	-3117
▁mamma	-3118
▁moved	-3119
▁novel	-3120
▁occup	-3121
▁order	-3122
▁prove	-3123
▁rapid	-3124
▁remar	-3125
▁restr	-3126
▁shock	-3127
▁third	-3128
▁threw	-3129
▁uncom	-3130
▁withd	-3131
Perhaps	-3132
attered	-3133
earance	-3134
etition	-3135
osition	-3136
▁Sunday	-3137
▁become	-3138
▁belong	-3139
▁bitter	-3140
▁clergy	-3141
▁clever	-3142
▁conven	-3143
▁couple	-3144
▁effort	-3145
▁fellow	-3146
▁female	-3147
▁formal	-3148
▁fright	-3149
▁humble	-3150
▁incred	-3151
▁insens	-3152
▁longed	-3153
▁minute	-3154
▁nearly	-3155
▁parent	-3156
▁placed	-3157
▁prepar	-3158
▁refuse	-3159
▁sacrif	-3160
▁smiles	-3161
▁spared	-3162
▁tender	-3163
▁unjust	-3164
▁volunt	-3165
lessness	-3166
▁besides	-3167
▁changed	-3168
▁command	-3169
▁deserve	-3170
▁gallant	-3171
▁guarded	-3172
▁hastily	-3173
▁hundred	-3174
▁instant	-3175
▁mistake	-3176
▁noticed	-3177
▁parting	-3178
▁quietly	-3179
▁quitted	-3180
▁running	-3181
▁selfish	-3182
▁various	-3183
▁violent	-3184
▁willing	-3185
ification	-3186
▁assembly	-3187
▁contents	-3188
▁continue	-3189
▁directed	-3190
▁discover	-3191
▁dressing	-3192
▁elegance	-3193
▁entering	-3194
▁exertion	-3195
▁honoured	-3196
▁mistress	-3197
▁offended	-3198
▁patience	-3199
▁rejoiced	-3200
▁thankful	-3201
▁unfortun	-3202
▁unreason	-3203
▁valuable	-3204
racechurch	-3205
▁Gardiners	-3206
▁Jenkinson	-3207
▁Wednesday	-3208
▁attending	-3209
▁incapable	-3210
▁occasions	-3211
▁ourselves	-3212
▁propriety	-3213
▁protested	-3214
▁reception	-3215
▁sincerely	-3216
▁suspected	-3217
▁suspicion	-3218
▁assurances	-3219
▁commission	-3220
▁correspond	-3221
▁difficulty	-3222
▁impression	-3223
▁imprudence	-3224
▁introduced	-3225
▁possession	-3226
▁reflection	-3227
▁remembered	-3228
▁repeatedly	-3229
▁uncommonly	-3230
▁improvement	-3231
▁interrupted	-3232
▁recommended	-3233
▁reflections	-3234
ND	-3235
Un	-3236
tê	-3237
!--	-3238
Mrs	-3239
civ	-3240
cul	-3241
fee	-3242
has	-3243
hib	-3244
hor	-3245
ime	-3246
jud	-3247
mas	-3248
ned	-3249
ock	-3250
omp	-3251
orm	-3252
pit	-3253
son	-3254
ude	-3255
ume	-3256
urd	-3257
vey	-3258
▁Be	-3259
▁PR	-3260
▁cr	-3261
▁fo	-3262
▁sl	-3263
atig	-3264
bted	-3265
bute	-3266
ffee	-3267
irth	-3268
osen	-3269
osit	-3270
osop	-3271
pend	-3272
tête	-3273
upid	-3274
vous	-3275
xion	-3276
▁Nor	-3277
▁Who	-3278
▁Yes	-3279
▁ban	-3280
▁bor	-3281
▁bri	-3282
▁cau	-3283
▁fun	-3284
▁lam	-3285
▁lay	-3286
▁lib	-3287
▁lod	-3288
▁nar	-3289
▁ner	-3290
▁odd	-3291
▁red	-3292
▁sex	-3293
▁ung	-3294
▁uns	-3295
armed	-3296
ctory	-3297
dered	-3298
erior	-3299
iding	-3300
ision	-3301
month	-3302
olent	-3303
rence	-3304
vered	-3305
▁Have	-3306
▁Hill	-3307
▁Poor	-3308
▁Pray	-3309
▁alto	-3310
▁cens	-3311
▁deny	-3312
▁desc	-3313
▁dign	-3314
▁elig	-3315
▁fail	-3316
▁gown	-3317
▁grad	-3318
▁hero	-3319
▁idle	-3320
▁lest	-3321
▁nice	-3322
▁phil	-3323
▁seat	-3324
▁seek	-3325
▁sole	-3326
advant	-3327
isance	-3328
ishing	-3329
twenty	-3330
▁Could	-3331
▁House	-3332
▁abode	-3333
▁admit	-3334
▁blind	-3335
▁doors	-3336
▁drawn	-3337
▁drink	-3338
▁estim	-3339
▁evils	-3340
▁finer	-3341
▁force	-3342
▁guess	-3343
▁horse	-3344
▁infam	-3345
▁north	-3346
▁punct	-3347
▁reach	-3348
▁river	-3349
▁rooms	-3350
▁schem	-3351
▁shown	-3352
▁sound	-3353
▁stead	-3354
▁throw	-3355
▁truly	-3356
▁vexed	-3357
ilities	-3358
▁Christ	-3359
▁Monday	-3360
▁absurd	-3361
▁advise	-3362
▁begged	-3363
▁chosen	-3364
▁coffee	-3365
▁contri	-3366
▁domest	-3367
▁figure	-3368
▁gentle	-3369
▁horses	-3370
▁memory	-3371
▁modest	-3372
▁notion	-3373
▁openly	-3374
▁severe	-3375
▁showed	-3376
▁stairs	-3377
▁stayed	-3378
▁taught	-3379
▁thrown	-3380
▁tranqu	-3381
▁uneasy	-3382
▁unlike	-3383
▁warmly	-3384
▁warmth	-3385
▁welcom	-3386
fortable	-3387
▁alarmed	-3388
▁anticip	-3389
▁carried	-3390
▁chooses	-3391
▁confirm	-3392
▁consist	-3393
▁console	-3394
▁contain	-3395
▁doubted	-3396
▁expense	-3397
▁follows	-3398
▁foolish	-3399
▁matters	-3400
▁objects	-3401
▁officer	-3402
▁ordered	-3403
▁refusal	-3404
▁remarks	-3405
▁scruple	-3406
▁seeking	-3407
▁service	-3408
▁shocked	-3409
▁totally	-3410
▁unknown	-3411
▁usually	-3412
▁witness	-3413
▁Scotland	-3414
▁bestowed	-3415
▁concerns	-3416
▁delicate	-3417
▁deserved	-3418
▁disappro	-3419
▁dwelling	-3420
▁employed	-3421
▁extravag	-3422
▁features	-3423
▁formerly	-3424
▁indebted	-3425
▁independ	-3426
▁inferior	-3427
▁inquired	-3428
▁instance	-3429
▁language	-3430
▁opinions	-3431
▁perceive	-3432
▁philosop	-3433
▁possibly	-3434
▁properly	-3435
▁property	-3436
▁quitting	-3437
▁relieved	-3438
▁reproach	-3439
▁somebody	-3440
▁somewhat	-3441
▁strongly	-3442
▁suffered	-3443
▁syllable	-3444
▁watching	-3445
▁wondered	-3446
▁according	-3447
▁certainty	-3448
▁clergyman	-3449
▁conscious	-3450
▁eagerness	-3451
▁exclaimed	-3452
▁gallantry	-3453
▁governess	-3454
▁ignorance	-3455
▁impatient	-3456
▁remaining	-3457
▁sacrifice	-3458
▁altogether	-3459
▁companions	-3460
▁complexion	-3461
▁conclusion	-3462
▁encouraged	-3463
▁expressing	-3464
▁frightened	-3465
▁heightened	-3466
▁misfortune	-3467
▁remarkable	-3468
▁separation	-3469
▁solicitude	-3470
▁unexpected	-3471
▁unpleasant	-3472
▁accompanied	-3473
▁acknowledge	-3474
▁arrangement	-3475
▁description	-3476
▁differently	-3477
▁explanation	-3478
▁indignation	-3479
▁impertinence	-3480
▁gentlemanlike	-3481
▁recollections	-3482
▁uncomfortable	-3483
.,	-3484
On	-3485
ev	-3486
sa	-3487
vy	-3488
Are	-3489
Did	-3490
ace	-3491
any	-3492
how	-3493
ilf	-3494
imp	-3495
inc	-3496
let	-3497
mpt	-3498
now	-3499
rep	-3500
sue	-3501
ury	-3502
was	-3503
▁Of	-3504
▁Pr	-3505
▁je	-3506
▁sk	-3507
alif	-3508
arer	-3509
bled	-3510
chie	-3511
cied	-3512
cili	-3513
eace	-3514
ends	-3515
erst	-3516
ilar	-3517
ilit	-3518
live	-3519
odge	-3520
oned	-3521
ones	-3522
oted	-3523
oval	-3524
reen	-3525
they	-3526
▁Now	-3527
▁Pre	-3528
▁cas	-3529
▁der	-3530
▁pal	-3531
▁pau	-3532
▁pow	-3533
▁sad	-3534
▁sal	-3535
▁sle	-3536
▁sof	-3537
▁sol	-3538
▁tal	-3539
▁unp	-3540
acity	-3541
aired	-3542
arded	-3543
bable	-3544
enced	-3545
erity	-3546
gence	-3547
izing	-3548
lance	-3549
olded	-3550
orthy	-3551
ounce	-3552
oused	-3553
ulous	-3554
▁King	-3555
▁crit	-3556
▁dead	-3557
▁dece	-3558
▁exec	-3559
▁firm	-3560
▁fret	-3561
▁game	-3562
▁hers	-3563
▁hist	-3564
▁hurt	-3565
▁lodg	-3566
▁mere	-3567
▁mess	-3568
▁obst	-3569
▁qual	-3570
▁rate	-3571
▁rose	-3572
▁tour	-3573
▁vill	-3574
easing	-3575
ension	-3576
ential	-3577
leness	-3578
liness	-3579
olence	-3580
orough	-3581
rimony	-3582
▁Lodge	-3583
▁abhor	-3584
▁acted	-3585
▁arise	-3586
▁balls	-3587
▁becom	-3588
▁cards	-3589
▁cared	-3590
▁dined	-3591
▁disin	-3592
▁exhib	-3593
▁exper	-3594
▁fatig	-3595
▁grand	-3596
▁habit	-3597
▁infin	-3598
▁lucky	-3599
▁merit	-3600
▁milit	-3601
▁names	-3602
▁paper	-3603
▁peace	-3604
▁posit	-3605
▁proof	-3606
▁refre	-3607
▁sport	-3608
▁studi	-3609
▁urged	-3610
▁worst	-3611
▁wound	-3612
Certain	-3613
idently	-3614
underst	-3615
utation	-3616
▁actual	-3617
▁bestow	-3618
▁betray	-3619
▁circle	-3620
▁consci	-3621
▁expose	-3622
▁extent	-3623
▁glance	-3624
▁insist	-3625
▁kindly	-3626
▁lament	-3627
▁larger	-3628
▁manage	-3629
▁narrow	-3630
▁number	-3631
▁orders	-3632
▁resemb	-3633
▁resist	-3634
▁rising	-3635
▁roused	-3636
▁source	-3637
▁spring	-3638
▁street	-3639
▁strugg	-3640
▁supply	-3641
▁united	-3642
▁waited	-3643
▁weight	-3644
humoured	-3645
▁actions	-3646
▁affairs	-3647
▁alluded	-3648
▁altered	-3649
▁apology	-3650
▁behaved	-3651
▁blushed	-3652
▁dischar	-3653
▁dreaded	-3654
▁engross	-3655
▁explain	-3656
▁fancied	-3657
▁finally	-3658
▁forgive	-3659
▁gallery	-3660
▁getting	-3661
▁jealous	-3662
▁liberty	-3663
▁motives	-3664
▁parents	-3665
▁parlour	-3666
▁playing	-3667
▁pretend	-3668
▁quality	-3669
▁rejoice	-3670
▁removal	-3671
▁renewal	-3672
▁reserve	-3673
▁schemes	-3674
▁similar	-3675
▁sixteen	-3676
▁telling	-3677
▁tempted	-3678
▁thanked	-3679
▁treated	-3680
▁trusted	-3681
▁univers	-3682
▁useless	-3683
▁variety	-3684
▁wanting	-3685
▁watched	-3686
Certainly	-3687
▁approach	-3688
▁cheerful	-3689
▁describe	-3690
▁desirous	-3691
▁domestic	-3692
▁eligible	-3693
▁entreaty	-3694
▁esteemed	-3695
▁exercise	-3696
▁families	-3697
▁friendly	-3698
▁improved	-3699
▁provided	-3700
▁raptures	-3701
▁refusing	-3702
▁reserved	-3703
▁unaffect	-3704
▁ventured	-3705
▁weakness	-3706
▁welcomed	-3707
▁wherever	-3708
▁concealed	-3709
▁contained	-3710
▁disadvant	-3711
▁discourse	-3712
▁discovery	-3713
▁falsehood	-3714
▁flattered	-3715
▁intending	-3716
▁patroness	-3717
▁principle	-3718
▁qualities	-3719
▁resolving	-3720
▁succeeded	-3721
▁advantages	-3722
▁alteration	-3723
▁civilities	-3724
▁completely	-3725
▁conjecture	-3726
▁dependence	-3727
▁directions	-3728
▁discovered	-3729
▁endeavours	-3730
▁improbable	-3731
▁interested	-3732
▁mentioning	-3733
▁misunderst	-3734
▁occasional	-3735
▁persuasion	-3736
▁profession	-3737
▁temptation	-3738
▁uneasiness	-3739
▁Gracechurch	-3740
▁approbation	-3741
▁distinction	-3742
▁embarrassed	-3743
▁entertained	-3744
▁established	-3745
▁represented	-3746
▁resemblance	-3747
▁undoubtedly	-3748
▁unfortunate	-3749
▁commendation	-3750
▁congratulate	-3751
▁expectations	-3752
▁satisfactory	-3753
▁unreasonable	-3754
▁condescension	-3755
▁distinguished	-3756
▁disapprobation	-3757
),	-3758
,’	-3759
;”	-3760
AR	-3761
At	-3762
Ay	-3763
IX	-3764
So	-3765
_;	-3766
eg	-3767
ia	-3768
no	-3769
oh	-3770
ug	-3771
--“	-3772
Can	-3773
Let	-3774
apa	-3775
bly	-3776
cen	-3777
equ	-3778
gar	-3779
iat	-3780
isa	-3781
ius	-3782
may	-3783
pla	-3784
rid	-3785
ued	-3786
urs	-3787
▁Ab	-3788
▁Sw	-3789
▁ga	-3790
▁mi	-3791
VIII	-3792
ants	-3793
aped	-3794
arch	-3795
ease	-3796
etch	-3797
hank	-3798
held	-3799
isen	-3800
lack	-3801
lier	-3802
lies	-3803
ngth	-3804
orum	-3805
othe	-3806
outh	-3807
rank	-3808
riet	-3809
rity	-3810
them	-3811
umer	-3812
vile	-3813
vity	-3814
when	-3815
▁Can	-3816
▁Did	-3817
▁Our	-3818
▁asc	-3819
▁bed	-3820
▁boy	-3821
▁cat	-3822
▁dev	-3823
▁glo	-3824
▁lat	-3825
▁mut	-3826
▁owe	-3827
▁sly	-3828
▁unt	-3829
▁vac	-3830
▁ver	-3831
▁vul	-3832
----”	-3833
Yours	-3834
aming	-3835
anced	-3836
antic	-3837
atory	-3838
buted	-3839
ening	-3840
heard	-3841
iance	-3842
iring	-3843
itate	-3844
licit	-3845
mptom	-3846
natur	-3847
ouisa	-3848
ouses	-3849
piece	-3850
tened	-3851
uming	-3852
verse	-3853
while	-3854
▁Only	-3855
▁Till	-3856
▁Very	-3857
▁Will	-3858
▁disp	-3859
▁diss	-3860
▁econ	-3861
▁emot	-3862
▁ener	-3863
▁excl	-3864
▁flut	-3865
▁foot	-3866
▁fore	-3867
▁gate	-3868
▁grew	-3869
▁hill	-3870
▁lawn	-3871
▁lift	-3872
▁loud	-3873
▁mark	-3874
▁ones	-3875
▁owed	-3876
▁papa	-3877
▁sees	-3878
▁shop	-3879
▁sink	-3880
▁slow	-3881
▁song	-3882
▁subs	-3883
▁test	-3884
▁wand	-3885
▁wide	-3886
▁wilf	-3887
ailing	-3888
course	-3889
enness	-3890
erning	-3891
esting	-3892
isable	-3893
itable	-3894
olding	-3895
priety	-3896
racted	-3897
rested	-3898
riages	-3899
▁James	-3900
▁Lakes	-3901
▁Swift	-3902
▁apart	-3903
▁attac	-3904
▁birth	-3905
▁breat	-3906
▁cases	-3907
▁chair	-3908
▁check	-3909
▁corps	-3910
▁disgu	-3911
▁disli	-3912
▁exist	-3913
▁fifty	-3914
▁flirt	-3915
▁guest	-3916
▁parts	-3917
▁perse	-3918
▁spare	-3919
▁subst	-3920
▁takes	-3921
▁woods	-3922
looking	-3923
oration	-3924
▁Heaven	-3925
▁across	-3926
▁amused	-3927
▁aspect	-3928
▁bright	-3929
▁broken	-3930
▁causes	-3931
▁ceased	-3932
▁claims	-3933
▁closed	-3934
▁county	-3935
▁declar	-3936
▁discom	-3937
▁enumer	-3938
▁fitted	-3939
▁genius	-3940
▁heaven	-3941
▁interv	-3942
▁invite	-3943
▁moving	-3944
▁oblige	-3945
▁powers	-3946
▁pursue	-3947
▁raised	-3948
▁result	-3949
▁simple	-3950
▁stupid	-3951
▁tables	-3952
▁trying	-3953
▁useful	-3954
▁vulgar	-3955
▁wisest	-3956
▁Charles	-3957
▁However	-3958
▁appears	-3959
▁beneath	-3960
▁constru	-3961
▁courtes	-3962
▁curious	-3963
▁delayed	-3964
▁deliber	-3965
▁desired	-3966
▁disdain	-3967
▁dressed	-3968
▁dropped	-3969
▁effects	-3970
▁grounds	-3971
▁justify	-3972
▁militia	-3973
▁modesty	-3974
▁pervers	-3975
▁plainly	-3976
▁prepare	-3977
▁pretens	-3978
▁privile	-3979
▁pursuit	-3980
▁quarrel	-3981
▁refused	-3982
▁renewed	-3983
▁reproof	-3984
▁stopped	-3985
▁symptom	-3986
▁teasing	-3987
▁touched	-3988
▁unnatur	-3989
▁village	-3990
▁weather	-3991
▁windows	-3992
▁Bingleys	-3993
▁afforded	-3994
▁beauties	-3995
▁composed	-3996
▁conclude	-3997
▁declined	-3998
▁earliest	-3999
▁engaging	-4000
▁entailed	-4001
▁everyone	-4002
▁hopeless	-4003
▁increase	-4004
▁nonsense	-4005
▁original	-4006
▁personal	-4007
▁presence	-4008
▁purchase	-4009
▁reminded	-4010
▁resigned	-4011
▁respects	-4012
▁separate	-4013
▁shocking	-4014
▁softened	-4015
▁speedily	-4016
▁strength	-4017
▁stronger	-4018
▁suspense	-4019
▁thorough	-4020
▁Christmas	-4021
▁Collinses	-4022
▁abilities	-4023
▁addresses	-4024
▁advisable	-4025
▁agitation	-4026
▁appearing	-4027
▁assembled	-4028
▁carriages	-4029
▁conceited	-4030
▁deference	-4031
▁departure	-4032
▁evidently	-4033
▁gradually	-4034
▁matrimony	-4035
▁miserable	-4036
▁performed	-4037
▁pleasures	-4038
▁preparing	-4039
▁purposely	-4040
▁recovered	-4041
▁repeating	-4042
▁somewhere	-4043
▁Everything	-4044
▁abhorrence	-4045
▁abominable	-4046
▁acceptable	-4047
▁approached	-4048
▁characters	-4049
▁employment	-4050
▁entreaties	-4051
▁gratifying	-4052
▁honourable	-4053
▁indulgence	-4054
▁mortifying	-4055
▁obligation	-4056
▁permission	-4057
▁proceeding	-4058
▁travelling	-4059
▁continually	-4060
▁displeasure	-4061
▁distressing	-4062
▁forbearance	-4063
▁impertinent	-4064
▁intercourse	-4065
▁performance	-4066
▁professions	-4067
▁twelvemonth	-4068
▁voluntarily	-4069
▁characterist	-4070
▁cheerfulness	-4071
▁independence	-4072
▁perverseness	-4073
▁entertainment	-4074
▁establishment	-4075
▁inconvenience	-4076
▁mortification	-4077
Ah	-4078
As	-4079
Of	-4080
Pr	-4081
ob	-4082
rp	-4083
rs	-4084
wo	-4085
▁6	-4086
For	-4087
May	-4088
Now	-4089
VII	-4090
ans	-4091
che	-4092
elt	-4093
had	-4094
idd	-4095
iqu	-4096
isk	-4097
lty	-4098
mit	-4099
oly	-4100
ont	-4101
oqu	-4102
ors	-4103
oup	-4104
que	-4105
ris	-4106
str	-4107
umb	-4108
▁15	-4109
▁26	-4110
▁CO	-4111
▁Ne	-4112
▁dw	-4113
▁hy	-4114
Dear	-4115
From	-4116
Pray	-4117
Then	-4118
ague	-4119
ains	-4120
ancy	-4121
bery	-4122
cast	-4123
cted	-4124
does	-4125
edom	-4126
eent	-4127
gent	-4128
hall	-4129
have	-4130
iano	-4131
ices	-4132
idge	-4133
iter	-4134
ites	-4135
iven	-4136
iver	-4137
maid	-4138
mand	-4139
mber	-4140
mine	-4141
ogue	-4142
rill	-4143
rose	-4144
sper	-4145
such	-4146
▁Add	-4147
▁Con	-4148
▁PRE	-4149
▁cop	-4150
▁eat	-4151
▁eff	-4152
▁ess	-4153
▁hat	-4154
▁hea	-4155
▁hot	-4156
▁ing	-4157
▁law	-4158
▁lie	-4159
▁lot	-4160
▁mel	-4161
▁mix	-4162
▁pen	-4163
agger	-4164
aints	-4165
aptiv	-4166
cency	-4167
civil	-4168
clock	-4169
eding	-4170
eenth	-4171
estib	-4172
ethod	-4173
forte	-4174
gress	-4175
ially	-4176
icing	-4177
icism	-4178
icule	-4179
iform	-4180
illed	-4181
itled	-4182
lfare	-4183
onies	-4184
place	-4185
posed	-4186
pping	-4187
quest	-4188
their	-4189
uding	-4190
ustom	-4191
velty	-4192
would	-4193
xture	-4194
▁Anne	-4195
▁Good	-4196
▁Nove	-4197
▁Park	-4198
▁Upon	-4199
▁adie	-4200
▁alac	-4201
▁amid	-4202
▁arch	-4203
▁bare	-4204
▁bord	-4205
▁cher	-4206
▁coat	-4207
▁cost	-4208
▁dict	-4209
▁dism	-4210
▁dull	-4211
▁fare	-4212
▁fish	-4213
▁grow	-4214
▁hack	-4215
▁harm	-4216
▁held	-4217
▁insp	-4218
▁irre	-4219
▁king	-4220
▁mend	-4221
▁mild	-4222
▁mode	-4223
▁port	-4224
▁rain	-4225
▁ruin	-4226
▁shru	-4227
▁shut	-4228
▁stir	-4229
▁stro	-4230
▁surv	-4231
▁thin	-4232
▁tong	-4233
▁unne	-4234
▁vary	-4235
▁warn	-4236
▁ways	-4237
cenary	-4238
earing	-4239
ecause	-4240
hamber	-4241
ically	-4242
iently	-4243
illity	-4244
import	-4245
itions	-4246
lihood	-4247
oncern	-4248
perate	-4249
retion	-4250
shment	-4251
vering	-4252
▁Jones	-4253
▁Never	-4254
▁Pride	-4255
▁Those	-4256
▁arose	-4257
▁artic	-4258
▁below	-4259
▁black	-4260
▁borne	-4261
▁build	-4262
▁catch	-4263
▁defer	-4264
▁dwelt	-4265
▁eloqu	-4266
▁exped	-4267
▁faint	-4268
▁field	-4269
▁forth	-4270
▁front	-4271
▁fully	-4272
▁grown	-4273
▁hasty	-4274
▁human	-4275
▁impul	-4276
▁later	-4277
▁lover	-4278
▁lower	-4279
▁moral	-4280
▁mouth	-4281
▁overp	-4282
▁pains	-4283
▁paint	-4284
▁piano	-4285
▁piece	-4286
▁score	-4287
▁sharp	-4288
▁sides	-4289
▁sleep	-4290
▁steps	-4291
▁teach	-4292
▁touch	-4293
▁trees	-4294
▁unequ	-4295
▁whist	-4296
▁white	-4297
Wickham	-4298
alified	-4299
ancholy	-4300
atively	-4301
ceiving	-4302
ception	-4303
enerous	-4304
itating	-4305
▁Having	-4306
▁Indeed	-4307
▁Louisa	-4308
▁abrupt	-4309
▁adding	-4310
▁amends	-4311
▁arisen	-4312
▁calcul	-4313
▁captiv	-4314
▁charms	-4315
▁condem	-4316
▁deeply	-4317
▁demand	-4318
▁desert	-4319
▁distur	-4320
▁driven	-4321
▁energy	-4322
▁events	-4323
▁exclam	-4324
▁failed	-4325
▁finish	-4326
▁hither	-4327
▁honest	-4328
▁horror	-4329
▁impart	-4330
▁lovers	-4331
▁method	-4332
▁miniat	-4333
▁morrow	-4334
▁mutual	-4335
▁nearer	-4336
▁novels	-4337
▁obstin	-4338
▁offers	-4339
▁office	-4340
▁overth	-4341
▁places	-4342
▁polite	-4343
▁preced	-4344
▁recent	-4345
▁repeat	-4346
▁season	-4347
▁select	-4348
▁sought	-4349
▁stared	-4350
▁strang	-4351
▁strike	-4352
▁trifle	-4353
▁vacant	-4354
▁valued	-4355
▁vestib	-4356
▁visits	-4357
iciently	-4358
ishments	-4359
▁Addison	-4360
▁England	-4361
▁acutely	-4362
▁amusing	-4363
▁approve	-4364
▁arising	-4365
▁benefit	-4366
▁capital	-4367
▁caution	-4368
▁censure	-4369
▁checked	-4370
▁consult	-4371
▁counter	-4372
▁created	-4373
▁crossed	-4374
▁cruelty	-4375
▁decorum	-4376
▁defects	-4377
▁dignity	-4378
▁discern	-4379
▁discour	-4380
▁distant	-4381
▁divided	-4382
▁economy	-4383
▁emotion	-4384
▁escaped	-4385
▁example	-4386
▁fearful	-4387
▁fifteen	-4388
▁fishing	-4389
▁freedom	-4390
▁happily	-4391
▁history	-4392
▁indulge	-4393
▁injured	-4394
▁joining	-4395
▁keeping	-4396
▁leading	-4397
▁letting	-4398
▁liberal	-4399
▁measure	-4400
▁message	-4401
▁mixture	-4402
▁nearest	-4403
▁novelty	-4404
▁offence	-4405
▁opposed	-4406
▁pointed	-4407
▁produce	-4408
▁prosper	-4409
▁provoke	-4410
▁putting	-4411
▁reasons	-4412
▁remains	-4413
▁ridicul	-4414
▁secured	-4415
▁station	-4416
▁steward	-4417
▁uncivil	-4418
▁uniform	-4419
▁uttered	-4420
▁venture	-4421
▁visible	-4422
▁welfare	-4423
▁November	-4424
▁advanced	-4425
▁alacrity	-4426
▁alarming	-4427
▁allowing	-4428
▁allusion	-4429
▁apparent	-4430
▁argument	-4431
▁cautious	-4432
▁ceremony	-4433
▁coloured	-4434
▁confined	-4435
▁contrast	-4436
▁courtesy	-4437
▁designed	-4438
▁disguise	-4439
▁exposing	-4440
▁familiar	-4441
▁guardian	-4442
▁humanity	-4443
▁humility	-4444
▁imagined	-4445
▁lodgings	-4446
▁obliging	-4447
▁occupied	-4448
▁pointing	-4449
▁pressing	-4450
▁progress	-4451
▁proposed	-4452
▁punctual	-4453
▁relating	-4454
▁ridicule	-4455
▁spending	-4456
▁summoned	-4457
▁trifling	-4458
▁unfolded	-4459
▁unnecess	-4460
▁visiting	-4461
▁withdrew	-4462
rehensible	-4463
▁apologize	-4464
▁attempted	-4465
▁condition	-4466
▁deficient	-4467
▁described	-4468
▁elsewhere	-4469
▁engrossed	-4470
▁expecting	-4471
▁imaginary	-4472
▁inquiring	-4473
▁justified	-4474
▁meanwhile	-4475
▁mercenary	-4476
▁mortified	-4477
▁prejudice	-4478
▁requiring	-4479
▁restraint	-4480
▁solemnity	-4481
▁suggested	-4482
▁sweetness	-4483
▁unconcern	-4484
▁unnatural	-4485
▁vestibule	-4486
▁violently	-4487
▁attributed	-4488
▁bitterness	-4489
▁concerning	-4490
▁conscience	-4491
▁convenient	-4492
▁diffidence	-4493
▁discretion	-4494
▁discussion	-4495
▁estimation	-4496
▁inducement	-4497
▁infinitely	-4498
▁likelihood	-4499
▁materially	-4500
▁melancholy	-4501
▁philosophy	-4502
▁pianoforte	-4503
▁proportion	-4504
▁punishment	-4505
▁sufficient	-4506
▁unaffected	-4507
▁accordingly	-4508
▁attractions	-4509
▁declaration	-4510
▁disgraceful	-4511
▁enumerating	-4512
▁impatiently	-4513
▁impropriety	-4514
▁intelligent	-4515
▁misfortunes	-4516
▁necessarily	-4517
▁pretensions	-4518
▁principally	-4519
▁refreshment	-4520
▁accidentally	-4521
▁complaisance	-4522
▁condescended	-4523
▁disadvantage	-4524
▁endeavouring	-4525
▁presentation	-4526
▁recollecting	-4527
▁sufficiently	-4528
▁tranquillity	-4529
▁insensibility	-4530
▁correspondence	-4531
▁respectability	-4532
▁accomplishments	-4533
**	-4534
34	-4535
An	-4536
Be	-4537
By	-4538
EN	-4539
Ex	-4540
GE	-4541
HI	-4542
IC	-4543
LL	-4544
OK	-4545
^{	-4546
aw	-4547
ax	-4548
ds	-4549
nk	-4550
?--	-4551
Her	-4552
ING	-4553
OOK	-4554
Tru	-4555
_,”	-4556
ale	-4557
awn	-4558
bra	-4559
dig	-4560
dom	-4561
eks	-4562
eur	-4563
ges	-4564
lap	-4565
met	-4566
net	-4567
nge	-4568
oat	-4569
ohn	-4570
opt	-4571
oss	-4572
ott	-4573
oul	-4574
pet	-4575
raw	-4576
two	-4577
upp	-4578
who	-4579
▁22	-4580
▁27	-4581
▁Ar	-4582
▁Pe	-4583
▁Un	-4584
Come	-4585
Prot	-4586
True	-4587
Will	-4588
ator	-4589
cary	-4590
cent	-4591
ches	-4592
cial	-4593
cies	-4594
ctor	-4595
efly	-4596
empl	-4597
eser	-4598
eton	-4599
feel	-4600
felt	-4601
hant	-4602
irty	-4603
kind	-4604
lead	-4605
lend	-4606
lish	-4607
lled	-4608
more	-4609
must	-4610
nert	-4611
oman	-4612
ouch	-4613
rain	-4614
rice	-4615
road	-4616
rove	-4617
rowd	-4618
rust	-4619
ters	-4620
▁***	-4621
▁God	-4622
▁Imp	-4623
▁Its	-4624
▁New	-4625
▁Two	-4626
▁arm	-4627
▁awe	-4628
▁bew	-4629
▁bid	-4630
▁buy	-4631
▁coo	-4632
▁cur	-4633
▁die	-4634
▁env	-4635
▁err	-4636
▁fit	-4637
▁hyp	-4638
▁imm	-4639
▁lik	-4640
▁mag	-4641
▁pha	-4642
▁rom	-4643
▁san	-4644
▁shy	-4645
▁wic	-4646
▁won	-4647
about	-4648
adict	-4649
alley	-4650
anter	-4651
arbar	-4652
aring	-4653
atisf	-4654
bbery	-4655
cence	-4656
chief	-4657
cibly	-4658
cipit	-4659
eches	-4660
enial	-4661
erous	-4662
iddle	-4663
inity	-4664
itary	-4665
itute	-4666
ivity	-4667
lling	-4668
oping	-4669
orned	-4670
orous	-4671
rille	-4672
table	-4673
ucing	-4674
worth	-4675
▁Capt	-4676
▁Clap	-4677
▁Come	-4678
▁Does	-4679
▁Even	-4680
▁Four	-4681
▁Many	-4682
▁Much	-4683
▁Some	-4684
▁Were	-4685
▁ange	-4686
▁army	-4687
▁arts	-4688
▁awak	-4689
▁born	-4690
▁camp	-4691
▁clos	-4692
▁date	-4693
▁defy	-4694
▁dial	-4695
▁elev	-4696
▁emin	-4697
▁fing	-4698
▁flow	-4699
▁hide	-4700
▁inev	-4701
▁land	-4702
▁maid	-4703
▁mali	-4704
▁meat	-4705
▁musl	-4706
▁obey	-4707
▁pale	-4708
▁path	-4709
▁pert	-4710
▁pett	-4711
▁pred	-4712
▁quad	-4713
▁ring	-4714
▁risk	-4715
▁rode	-4716
▁serm	-4717
▁sinc	-4718
▁size	-4719
▁sunk	-4720
▁surm	-4721
▁ungu	-4722
▁vast	-4723
▁wink	-4724
▁yawn	-4725
ancing	-4726
atched	-4727
atious	-4728
brance	-4729
castle	-4730
ection	-4731
elcome	-4732
ensive	-4733
ettled	-4734
etween	-4735
idable	-4736
ienced	-4737
judged	-4738
making	-4739
nected	-4740
rences	-4741
ronted	-4742
strong	-4743
umbent	-4744
uously	-4745
ursday	-4746
ustice	-4747
velope	-4748
▁About	-4749
▁Field	-4750
▁Since	-4751
▁Spect	-4752
▁Where	-4753
▁Young	-4754
▁abund	-4755
▁accus	-4756
▁adopt	-4757
▁alive	-4758
▁aside	-4759
▁atone	-4760
▁benev	-4761
▁blush	-4762
▁bound	-4763
▁bride	-4764
▁copse	-4765
▁cough	-4766
▁crowd	-4767
▁dirty	-4768
▁disre	-4769
▁diver	-4770
▁drive	-4771
▁embra	-4772
▁ended	-4773
▁exact	-4774
▁faith	-4775
▁feels	-4776
▁frank	-4777
▁gross	-4778
▁hated	-4779
▁heavy	-4780
▁hints	-4781
▁inatt	-4782
▁indis	-4783
▁infli	-4784
▁ingen	-4785
▁inher	-4786
▁innoc	-4787
▁lives	-4788
▁maint	-4789
▁minds	-4790
▁moder	-4791
▁mount	-4792
▁owing	-4793
▁owner	-4794
▁regul	-4795
▁revol	-4796
▁shape	-4797
▁shows	-4798
▁skill	-4799
▁space	-4800
▁tired	-4801
▁trace	-4802
▁trade	-4803
▁trans	-4804
▁unass	-4805
▁uncon	-4806
▁ungra	-4807
▁unite	-4808
▁vouch	-4809
▁water	-4810
entions	-4811
iciency	-4812
ificant	-4813
iveness	-4814
jection	-4815
nertime	-4816
onsider	-4817
parlour	-4818
perhaps	-4819
rivance	-4820
tensive	-4821
▁Carter	-4822
▁Younge	-4823
▁abroad	-4824
▁absent	-4825
▁accent	-4826
▁accuse	-4827
▁acting	-4828
▁active	-4829
▁amazed	-4830
▁amidst	-4831
▁attack	-4832
▁begins	-4833
▁behalf	-4834
▁bought	-4835
▁breath	-4836
▁cheeks	-4837
▁circul	-4838
▁convey	-4839
▁coolly	-4840
▁decide	-4841
▁detest	-4842
▁dishon	-4843
▁divers	-4844
▁faults	-4845
▁forbid	-4846
▁freely	-4847
▁habits	-4848
▁higher	-4849
▁hoping	-4850
▁houses	-4851
▁humili	-4852
▁infamy	-4853
▁insign	-4854
▁justly	-4855
▁killed	-4856
▁lessen	-4857
▁middle	-4858
▁nerves	-4859
▁obsequ	-4860
▁observ	-4861
▁oversp	-4862
▁paying	-4863
▁perpet	-4864
▁points	-4865
▁portra	-4866
▁presum	-4867
▁prodig	-4868
▁reader	-4869
▁recall	-4870
▁reconc	-4871
▁remind	-4872
▁repine	-4873
▁screen	-4874
▁senses	-4875
▁shared	-4876
▁sickly	-4877
▁slowly	-4878
▁solely	-4879
▁sorrow	-4880
▁splend	-4881
▁stream	-4882
▁thinks	-4883
▁tongue	-4884
▁transp	-4885
▁valley	-4886
▁varied	-4887
▁wicked	-4888
▁wisely	-4889
▁worked	-4890
ableness	-4891
atisfied	-4892
itations	-4893
olerable	-4894
othecary	-4895
terested	-4896
▁Captain	-4897
▁Clapham	-4898
▁Neither	-4899
▁Without	-4900
▁advance	-4901
▁affront	-4902
▁attacks	-4903
▁becomes	-4904
▁blessed	-4905
▁briefly	-4906
▁caprice	-4907
▁careful	-4908
▁conceit	-4909
▁content	-4910
▁deceive	-4911
▁designs	-4912
▁discont	-4913
▁driving	-4914
▁earlier	-4915
▁efforts	-4916
▁endured	-4917
▁estates	-4918
▁falling	-4919
▁fatigue	-4920
▁flutter	-4921
▁forming	-4922
▁furnish	-4923
▁gravely	-4924
▁gravity	-4925
▁hackney	-4926
▁happens	-4927
▁humbled	-4928
▁impulse	-4929
▁imputed	-4930
▁kingdom	-4931
▁luckily	-4932
▁nervous	-4933
▁overthr	-4934
▁passion	-4935
▁persist	-4936
▁perusal	-4937
▁phaeton	-4938
▁promote	-4939
▁propose	-4940
▁provide	-4941
▁prudent	-4942
▁quickly	-4943
▁reduced	-4944
▁regrets	-4945
▁regular	-4946
▁showing	-4947
▁singing	-4948
▁started	-4949
▁talents	-4950
▁undeser	-4951
▁unequal	-4952
▁unreser	-4953
▁visited	-4954
Protested	-4955
ardonable	-4956
emplation	-4957
▁Fielding	-4958
▁Thursday	-4959
▁absolute	-4960
▁activity	-4961
▁agitated	-4962
▁animated	-4963
▁announce	-4964
▁assisted	-4965
▁assuring	-4966
▁awakened	-4967
▁betrayed	-4968
▁blessing	-4969
▁breeding	-4970
▁calmness	-4971
▁carrying	-4972
▁comforts	-4973
▁complain	-4974
▁confused	-4975
▁converse	-4976
▁convince	-4977
▁critical	-4978
▁depended	-4979
▁deserves	-4980
▁dialogue	-4981
▁disliked	-4982
▁distrust	-4983
▁enjoying	-4984
▁entitled	-4985
▁evenings	-4986
▁examined	-4987
▁extended	-4988
▁fancying	-4989
▁flirting	-4990
▁forcibly	-4991
▁grandeur	-4992
▁grievous	-4993
▁hastened	-4994
▁honestly	-4995
▁husbands	-4996
▁infamous	-4997
▁insolent	-4998
▁interval	-4999
▁jealousy	-5000
▁likeness	-5001
▁needless	-5002
▁numerous	-5003
▁obtained	-5004
▁persever	-5005
▁positive	-5006
▁practice	-5007
▁precipit	-5008
▁preserve	-5009
▁previous	-5010
▁procured	-5011
▁prudence	-5012
▁rapidity	-5013
▁rejected	-5014
▁repaired	-5015
▁romantic	-5016
▁scruples	-5017
▁secondly	-5018
▁selected	-5019
▁situated	-5020
▁slightly	-5021
▁solitary	-5022
▁speeches	-5023
▁studying	-5024
▁thanking	-5025
▁treasure	-5026
▁unlikely	-5027
▁unworthy	-5028
▁withheld	-5029
▁yielding	-5030
importance	-5031
▁Everybody	-5032
▁Newcastle	-5033
▁Prejudice	-5034
▁accepting	-5035
▁admirable	-5036
▁allowance	-5037
▁animation	-5038
▁apartment	-5039
▁apprehend	-5040
▁arguments	-5041
▁attribute	-5042
▁benefited	-5043
▁cherished	-5044
▁confessed	-5045
▁confident	-5046
▁contented	-5047
▁decidedly	-5048
▁delivered	-5049
▁dismissed	-5050
▁displayed	-5051
▁doubtless	-5052
▁encounter	-5053
▁essential	-5054
▁examining	-5055
▁excessive	-5056
▁execution	-5057
▁extensive	-5058
▁formality	-5059
▁impartial	-5060
▁incumbent	-5061
▁injustice	-5062
▁instances	-5063
▁officious	-5064
▁parsonage	-5065
▁patronage	-5066
▁preceding	-5067
▁preferred	-5068
▁preserved	-5069
▁privately	-5070
▁professed	-5071
▁promising	-5072
▁prospects	-5073
▁quadrille	-5074
▁readiness	-5075
▁rejoicing	-5076
▁residence	-5077
▁shrubbery	-5078
▁simpleton	-5079
▁sincerity	-5080
▁slightest	-5081
▁steadfast	-5082
▁strangers	-5083
▁stupidity	-5084
▁supported	-5085
▁treatment	-5086
▁unguarded	-5087
▁unwelcome	-5088
▁willingly	-5089
▁witnessed	-5090
▁abominably	-5091
▁acceptance	-5092
▁affability	-5093
▁affections	-5094
▁attempting	-5095
▁attendance	-5096
▁collection	-5097
▁complaints	-5098
▁conference	-5099
▁consistent	-5100
▁contradict	-5101
▁cordiality	-5102
▁despatched	-5103
▁dinnertime	-5104
▁displeased	-5105
▁eighteenth	-5106
▁exclaiming	-5107
▁flattering	-5108
▁formidable	-5109
▁gentleness	-5110
▁gratefully	-5111
▁handsomest	-5112
▁headstrong	-5113
▁hesitation	-5114
▁insensible	-5115
▁intentions	-5116
▁liveliness	-5117
▁management	-5118
▁obsequious	-5119
▁occasioned	-5120
▁perceiving	-5121
▁pleasanter	-5122
▁pleasantly	-5123
▁protesting	-5124
▁reasonably	-5125
▁recovering	-5126
▁ridiculous	-5127
▁salutation	-5128
▁succeeding	-5129
▁suspicions	-5130
▁triumphant	-5131
▁ungracious	-5132
▁anticipated	-5133
▁apologizing	-5134
▁awkwardness	-5135
▁competition	-5136
▁complacency	-5137
▁contrivance	-5138
▁employments	-5139
▁encouraging	-5140
▁experienced	-5141
▁extravagant	-5142
▁imagination	-5143
▁introducing	-5144
▁occurrences	-5145
▁restoration	-5146
▁supposition	-5147
▁unconnected	-5148
▁unnecessary	-5149
▁unwillingly	-5150
▁confirmation	-5151
▁construction	-5152
▁deliberation	-5153
▁delightfully	-5154
▁dissatisfied	-5155
▁extravagance	-5156
▁inconvenient	-5157
▁intelligible	-5158
▁unpardonable	-5159
▁contemplation	-5160
▁disinterested	-5161
▁misunderstand	-5162
▁objectionable	-5163
▁acknowledgment	-5164
▁affectionately	-5165
▁characteristic	-5166
▁recommendation	-5167
▁representation	-5168
!)	-5169
13	-5170
15	-5171
GH	-5172
HE	-5173
IA	-5174
LE	-5175
La	-5176
NE	-5177
ON	-5178
SS	-5179
UR	-5180
bo	-5181
fl	-5182
ip	-5183
sg	-5184
ub	-5185
yn	-5186
zz	-5187
▁8	-5188
▁9	-5189
ARD	-5190
All	-5191
Eng	-5192
GHT	-5193
IND	-5194
Nay	-5195
OND	-5196
Tis	-5197
Und	-5198
alt	-5199
alu	-5200
bit	-5201
bye	-5202
cks	-5203
ecd	-5204
edy	-5205
eel	-5206
egr	-5207
eps	-5208
ept	-5209
exp	-5210
fac	-5211
het	-5212
idg	-5213
iff	-5214
ims	-5215
isy	-5216
lew	-5217
lid	-5218
loo	-5219
lst	-5220
mar	-5221
min	-5222
mma	-5223
nam	-5224
nes	-5225
ork	-5226
pic	-5227
ply	-5228
rob	-5229
roy	-5230
run	-5231
say	-5232
tel	-5233
tem	-5234
une	-5235
upt	-5236
vid	-5237
vol	-5238
▁14	-5239
▁16	-5240
▁17	-5241
▁36	-5242
▁Ag	-5243
▁Al	-5244
▁LX	-5245
▁RI	-5246
▁Sm	-5247
▁da	-5248
▁du	-5249
▁ec	-5250
▁ug	-5251
,--“	-5252
:--“	-5253
INER	-5254
Jane	-5255
Such	-5256
addo	-5257
amed	-5258
amsg	-5259
bred	-5260
came	-5261
chan	-5262
cket	-5263
cond	-5264
done	-5265
dour	-5266
elly	-5267
enes	-5268
erly	-5269
etry	-5270
ewis	-5271
forg	-5272
hack	-5273
hear	-5274
hern	-5275
ials	-5276
iche	-5277
idow	-5278
ilty	-5279
inct	-5280
ipid	-5281
irds	-5282
ltry	-5283
mean	-5284
nces	-5285
noon	-5286
omer	-5287
only	-5288
oute	-5289
owal	-5290
part	-5291
pass	-5292
pled	-5293
psom	-5294
quis	-5295
rant	-5296
rawn	-5297
rive	-5298
rost	-5299
scri	-5300
seen	-5301
sing	-5302
tery	-5303
then	-5304
ulty	-5305
uous	-5306
veal	-5307
were	-5308
with	-5309
▁156	-5310
▁AND	-5311
▁Che	-5312
▁Har	-5313
▁Has	-5314
▁Int	-5315
▁Jan	-5316
▁May	-5317
▁Reg	-5318
▁Rob	-5319
▁Som	-5320
▁THE	-5321
▁anc	-5322
▁ard	-5323
▁ate	-5324
▁bef	-5325
▁bon	-5326
▁bur	-5327
▁cry	-5328
▁cyn	-5329
▁don	-5330
▁dup	-5331
▁emp	-5332
▁fer	-5333
▁fru	-5334
▁gay	-5335
▁god	-5336
▁hos	-5337
▁irr	-5338
▁leg	-5339
▁lim	-5340
▁nay	-5341
▁obe	-5342
▁odi	-5343
▁pop	-5344
▁pou	-5345
▁ram	-5346
▁sch	-5347
▁sed	-5348
▁tid	-5349
▁tor	-5350
▁tum	-5351
▁upp	-5352
▁van	-5353
▁vig	-5354
After	-5355
ONDON	-5356
Shall	-5357
Thank	-5358
after	-5359
ammed	-5360
apted	-5361
arted	-5362
attle	-5363
avour	-5364
awson	-5365
breed	-5366
cting	-5367
ected	-5368
enest	-5369
enses	-5370
eping	-5371
erted	-5372
eties	-5373
faced	-5374
gnost	-5375
guish	-5376
habit	-5377
haust	-5378
hered	-5379
house	-5380
icoat	-5381
ighed	-5382
iller	-5383
iquet	-5384
irmed	-5385
isely	-5386
laugh	-5387
nings	-5388
orney	-5389
repro	-5390
retch	-5391
round	-5392
royed	-5393
ughty	-5394
ulity	-5395
urity	-5396
woman	-5397
▁Brit	-5398
▁Emma	-5399
▁Five	-5400
▁GARD	-5401
▁Happ	-5402
▁John	-5403
▁June	-5404
▁NIND	-5405
▁Tell	-5406
▁adds	-5407
▁appe	-5408
▁audi	-5409
▁bell	-5410
▁bent	-5411
▁blue	-5412
▁bold	-5413
▁bott	-5414
▁boys	-5415
▁canv	-5416
▁comb	-5417
▁conj	-5418
▁cool	-5419
▁died	-5420
▁drop	-5421
▁earl	-5422
▁enab	-5423
▁ensu	-5424
▁envy	-5425
▁farm	-5426
▁fidg	-5427
▁gift	-5428
▁glow	-5429
▁hair	-5430
▁intr	-5431
▁joke	-5432
▁meas	-5433
▁miss	-5434
▁move	-5435
▁neat	-5436
▁nort	-5437
▁nupt	-5438
▁pack	-5439
▁pomp	-5440
▁puzz	-5441
▁reli	-5442
▁ride	-5443
▁rude	-5444
▁save	-5445
▁scar	-5446
▁shan	-5447
▁stop	-5448
▁tick	-5449
▁tire	-5450
▁trad	-5451
▁unac	-5452
▁unsu	-5453
▁vice	-5454
▁wear	-5455
▁wine	-5456
addock	-5457
allied	-5458
denial	-5459
egrity	-5460
erfect	-5461
hether	-5462
iences	-5463
ledged	-5464
looked	-5465
minded	-5466
native	-5467
nesley	-5468
onious	-5469
onsist	-5470
ossess	-5471
owered	-5472
posure	-5473
rained	-5474
renity	-5475
rietor	-5476
script	-5477
should	-5478
uckily	-5479
uctant	-5480
ulting	-5481
upport	-5482
usions	-5483
utting	-5484
volous	-5485
warded	-5486
▁Again	-5487
▁Allow	-5488
▁Epsom	-5489
▁Gould	-5490
▁Lewis	-5491
▁Other	-5492
▁RIGHT	-5493
▁Ramsg	-5494
▁Thank	-5495
▁Yours	-5496
▁adieu	-5497
▁anecd	-5498
▁angel	-5499
▁apply	-5500
▁assid	-5501
▁bowed	-5502
▁broke	-5503
▁built	-5504
▁burst	-5505
▁cease	-5506
▁class	-5507
▁coinc	-5508
▁compr	-5509
▁conqu	-5510
▁daily	-5511
▁decis	-5512
▁devel	-5513
▁discl	-5514
▁dying	-5515
▁excus	-5516
▁faces	-5517
▁fetch	-5518
▁fight	-5519
▁final	-5520
▁frost	-5521
▁gloom	-5522
▁grace	-5523
▁grief	-5524
▁griev	-5525
▁group	-5526
▁grove	-5527
▁guilt	-5528
▁hills	-5529
▁hypoc	-5530
▁impud	-5531
▁inciv	-5532
▁irrit	-5533
▁keeps	-5534
▁loves	-5535
▁merry	-5536
▁mixed	-5537
▁noise	-5538
▁noisy	-5539
▁olive	-5540
▁ornam	-5541
▁overt	-5542
▁owned	-5543
▁prett	-5544
▁quart	-5545
▁recon	-5546
▁reven	-5547
▁route	-5548
▁saved	-5549
▁scand	-5550
▁shade	-5551
▁sheet	-5552
▁shoes	-5553
▁shoot	-5554
▁smart	-5555
▁solid	-5556
▁stiff	-5557
▁stout	-5558
▁swell	-5559
▁total	-5560
▁tremb	-5561
▁union	-5562
▁walks	-5563
▁whims	-5564
▁widow	-5565
Engaged	-5566
Nothing	-5567
aluable	-5568
ariably	-5569
because	-5570
ciously	-5571
engaged	-5572
ensical	-5573
express	-5574
feeling	-5575
ichever	-5576
irement	-5577
lighted	-5578
mission	-5579
nothing	-5580
ourable	-5581
overing	-5582
ritical	-5583
▁Before	-5584
▁Church	-5585
▁Easter	-5586
▁LONDON	-5587
▁Miller	-5588
▁People	-5589
▁advent	-5590
▁amount	-5591
▁assume	-5592
▁avowal	-5593
▁avowed	-5594
▁banish	-5595
▁barely	-5596
▁bonnet	-5597
▁branch	-5598
▁breach	-5599
▁bridge	-5600
▁brings	-5601
▁busily	-5602
▁comply	-5603
▁custom	-5604
▁dearly	-5605
▁decent	-5606
▁deeper	-5607
▁defend	-5608
▁denial	-5609
▁denied	-5610
▁disgra	-5611
▁divide	-5612
▁errors	-5613
▁excite	-5614
▁exquis	-5615
▁fallen	-5616
▁faulty	-5617
▁flight	-5618
▁fourth	-5619
▁gloomy	-5620
▁graces	-5621
▁gravel	-5622
▁grieve	-5623
▁handed	-5624
▁horrid	-5625
▁hospit	-5626
▁imagin	-5627
▁incess	-5628
▁injuri	-5629
▁intrud	-5630
▁judged	-5631
▁lasted	-5632
▁lovely	-5633
▁mantel	-5634
▁meanly	-5635
▁misrep	-5636
▁missed	-5637
▁modern	-5638
▁mouths	-5639
▁muslin	-5640
▁needed	-5641
▁nicely	-5642
▁obeyed	-5643
▁obtain	-5644
▁odious	-5645
▁offend	-5646
▁oppose	-5647
▁paused	-5648
▁pertur	-5649
▁pitied	-5650
▁plague	-5651
▁pocket	-5652
▁ponies	-5653
▁poorly	-5654
▁prejud	-5655
▁punish	-5656
▁raptur	-5657
▁rector	-5658
▁render	-5659
▁reveal	-5660
▁review	-5661
▁safely	-5662
▁saving	-5663
▁scenes	-5664
▁school	-5665
▁search	-5666
▁shaken	-5667
▁sketch	-5668
▁spread	-5669
▁strict	-5670
▁submit	-5671
▁suited	-5672
▁surely	-5673
▁survey	-5674
▁talent	-5675
▁thirty	-5676
▁traced	-5677
▁transa	-5678
▁tumult	-5679
▁uncons	-5680
▁urgent	-5681
▁waiter	-5682
▁walker	-5683
▁wealth	-5684
▁whence	-5685
▁whilst	-5686
▁widely	-5687
▁wilful	-5688
▁worthy	-5689
▁writer	-5690
Whatever	-5691
breeding	-5692
ferences	-5693
gnostics	-5694
ificance	-5695
oncerted	-5696
tempered	-5697
▁Between	-5698
▁English	-5699
▁abusing	-5700
▁acquies	-5701
▁adapted	-5702
▁admirer	-5703
▁admires	-5704
▁adorned	-5705
▁advised	-5706
▁anguish	-5707
▁article	-5708
▁bidding	-5709
▁blaming	-5710
▁candour	-5711
▁chamber	-5712
▁civilly	-5713
▁claimed	-5714
▁clearly	-5715
▁compose	-5716
▁concili	-5717
▁condemn	-5718
▁cordial	-5719
▁courses	-5720
▁crammed	-5721
▁crowded	-5722
▁cruelly	-5723
▁decease	-5724
▁defence	-5725
▁deigned	-5726
▁descent	-5727
▁describ	-5728
▁despise	-5729
▁devoted	-5730
▁disincl	-5731
▁draught	-5732
▁exagger	-5733
▁existed	-5734
▁extract	-5735
▁fearing	-5736
▁feature	-5737
▁figures	-5738
▁fingers	-5739
▁follies	-5740
▁gaining	-5741
▁genteel	-5742
▁growing	-5743
▁guessed	-5744
▁happier	-5745
▁haughty	-5746
▁imposed	-5747
▁indelic	-5748
▁individ	-5749
▁inhabit	-5750
▁insipid	-5751
▁keenest	-5752
▁learned	-5753
▁lottery	-5754
▁notions	-5755
▁oftener	-5756
▁paddock	-5757
▁placing	-5758
▁planned	-5759
▁pompous	-5760
▁popular	-5761
▁portion	-5762
▁poultry	-5763
▁propens	-5764
▁raising	-5765
▁readers	-5766
▁recital	-5767
▁refrain	-5768
▁relates	-5769
▁require	-5770
▁retired	-5771
▁revived	-5772
▁seeming	-5773
▁setting	-5774
▁signify	-5775
▁sinking	-5776
▁sources	-5777
▁special	-5778
▁stately	-5779
▁stretch	-5780
▁studies	-5781
▁subsist	-5782
▁suggest	-5783
▁summons	-5784
▁tallest	-5785
▁tickets	-5786
▁tidings	-5787
▁viewing	-5788
▁wonders	-5789
▁wounded	-5790
qualified	-5791
▁Annesley	-5792
▁GARDINER	-5793
▁Ramsgate	-5794
▁Robinson	-5795
▁Whatever	-5796
▁accounts	-5797
▁affinity	-5798
▁agreeing	-5799
▁alliance	-5800
▁applying	-5801
▁approved	-5802
▁ascended	-5803
▁attorney	-5804
▁banished	-5805
▁becoming	-5806
▁belonged	-5807
▁building	-5808
▁changing	-5809
▁compared	-5810
▁complied	-5811
▁conceive	-5812
▁contrive	-5813
▁countera	-5814
▁defiance	-5815
▁deprived	-5816
▁despised	-5817
▁destined	-5818
▁detained	-5819
▁diverted	-5820
▁easiness	-5821
▁envelope	-5822
▁expenses	-5823
▁explicit	-5824
▁faithful	-5825
▁farewell	-5826
▁fatigued	-5827
▁glancing	-5828
▁heroines	-5829
▁hesitate	-5830
▁hurrying	-5831
▁inviting	-5832
▁involunt	-5833
▁involved	-5834
▁listener	-5835
▁measures	-5836
▁mildness	-5837
▁minutely	-5838
▁mischief	-5839
▁mornings	-5840
▁negative	-5841
▁northern	-5842
▁nuptials	-5843
▁offences	-5844
▁offering	-5845
▁openness	-5846
▁ordinary	-5847
▁overcame	-5848
▁overhear	-5849
▁overlook	-5850
▁partners	-5851
▁passages	-5852
▁pitiable	-5853
▁politely	-5854
▁powerful	-5855
▁presents	-5856
▁promises	-5857
▁provoked	-5858
▁publicly	-5859
▁reaching	-5860
▁recovery	-5861
▁regarded	-5862
▁relative	-5863
▁reliance	-5864
▁removing	-5865
▁replying	-5866
▁resented	-5867
▁reserves	-5868
▁rewarded	-5869
▁sanction	-5870
▁secretly	-5871
▁security	-5872
▁serenity	-5873
▁settling	-5874
▁silently	-5875
▁sisterly	-5876
▁slighted	-5877
▁solitude	-5878
▁spiteful	-5879
▁splendid	-5880
▁steadily	-5881
▁stopping	-5882
▁striking	-5883
▁suitable	-5884
▁superint	-5885
▁surround	-5886
▁sweetest	-5887
▁tendency	-5888
▁unfavour	-5889
▁violence	-5890
▁wilfully	-5891
appearance	-5892
upportable	-5893
▁Spectator	-5894
▁accompany	-5895
▁afternoon	-5896
▁agreeably	-5897
▁agreement	-5898
▁announced	-5899
▁answering	-5900
▁ascertain	-5901
▁assertion	-5902
▁beholding	-5903
▁bordering	-5904
▁carefully	-5905
▁collected	-5906
▁colouring	-5907
▁complying	-5908
▁confirmed	-5909
▁consoling	-5910
▁continual	-5911
▁contrived	-5912
▁cordially	-5913
▁dejection	-5914
▁dependent	-5915
▁descended	-5916
▁despaired	-5917
▁desperate	-5918
▁destroyed	-5919
▁dignified	-5920
▁discredit	-5921
▁discussed	-5922
▁disdained	-5923
▁disgusted	-5924
▁diversion	-5925
▁elevation	-5926
▁eloquence	-5927
▁excepting	-5928
▁existence	-5929
▁frankness	-5930
▁frivolous	-5931
▁greatness	-5932
▁handsomer	-5933
▁hereafter	-5934
▁hesitated	-5935
▁housemaid	-5936
▁inconsist	-5937
▁integrity	-5938
▁intervals	-5939
▁interview	-5940
▁intrusion	-5941
▁liveliest	-5942
▁momentary	-5943
▁obeisance	-5944
▁objecting	-5945
▁obstinate	-5946
▁offending	-5947
▁offensive	-5948
▁overheard	-5949
▁permitted	-5950
▁petticoat	-5951
▁preaching	-5952
▁presently	-5953
▁privilege	-5954
▁procuring	-5955
▁pronounce	-5956
▁provoking	-5957
▁purchased	-5958
▁quartered	-5959
▁quickness	-5960
▁reflected	-5961
▁rejection	-5962
▁respected	-5963
▁sensation	-5964
▁separated	-5965
▁stationed	-5966
▁struggles	-5967
▁substance	-5968
▁transport	-5969
▁uncertain	-5970
▁unhappily	-5971
▁uniformly	-5972
▁universal	-5973
▁unluckily	-5974
▁unsettled	-5975
▁voluntary	-5976
▁vulgarity	-5977
▁wandering	-5978
▁whichever	-5979
▁withdrawn	-5980
▁wonderful	-5981
▁abundantly	-5982
▁accidental	-5983
▁accounting	-5984
▁addressing	-5985
▁amusements	-5986
▁apothecary	-5987
▁assertions	-5988
▁authorized	-5989
▁calculated	-5990
▁composedly	-5991
▁conditions	-5992
▁confession	-5993
▁constantly	-5994
▁contracted	-5995
▁conversing	-5996
▁discharged	-5997
▁disengaged	-5998
▁displaying	-5999
▁disrespect	-6000
▁excellence	-6001
▁exhibition	-6002
▁experience	-6003
▁explaining	-6004
▁foundation	-6005
▁incivility	-6006
▁incredible	-6007
▁inevitable	-6008
▁invaluable	-6009
▁invariably	-6010
▁irritation	-6011
▁meditating	-6012
▁miniatures	-6013
▁opposition	-6014
▁overlooked	-6015
▁overspread	-6016
▁overthrown	-6017
▁peculiarly	-6018
▁postscript	-6019
▁preferment	-6020
▁pretending	-6021
▁privileged	-6022
▁proprietor	-6023
▁prosperity	-6024
▁punctually	-6025
▁questioned	-6026
▁rationally	-6027
▁reconciled	-6028
▁repetition	-6029
▁reputation	-6030
▁resolutely	-6031
▁respecting	-6032
▁retirement	-6033
▁scandalous	-6034
▁sensations	-6035
▁successful	-6036
▁tenderness	-6037
▁thoroughly	-6038
▁throughout	-6039
▁travellers	-6040
▁unassuming	-6041
▁ungenerous	-6042
▁unreserved	-6043
▁whispering	-6044
llustrations	-6045
▁accusations	-6046
▁alternative	-6047
▁attentively	-6048
▁benevolence	-6049
▁ceremonious	-6050
▁circumspect	-6051
▁communicate	-6052
▁composition	-6053
▁conjectures	-6054
▁contentment	-6055
▁continuance	-6056
▁convenience	-6057
▁determining	-6058
▁effectually	-6059
▁examination	-6060
▁hospitality	-6061
▁incredulity	-6062
▁incredulous	-6063
▁inferiority	-6064
▁inhabitants	-6065
▁intolerable	-6066
▁nonsensical	-6067
▁obligations	-6068
▁overpowered	-6069
▁perpetually	-6070
▁playfulness	-6071
▁presumption	-6072
▁prognostics	-6073
▁quarrelling	-6074
▁regimentals	-6075
▁remembrance	-6076
▁sensibility	-6077
▁significant	-6078
▁steadfastly	-6079
▁undeserving	-6080
▁universally	-6081
▁willingness	-6082
▁wonderfully	-6083
▁communicated	-6084
▁complimented	-6085
▁comprehended	-6086
▁considerably	-6087
▁discomposure	-6088
▁disconcerted	-6089
▁discontented	-6090
▁exclamations	-6091
▁guardianship	-6092
▁housekeeping	-6093
▁instructions	-6094
▁intermission	-6095
▁lamentations	-6096
▁misrepresent	-6097
▁observations	-6098
▁perseverance	-6099
▁pleasantness	-6100
▁prodigiously	-6101
▁suitableness	-6102
▁transactions	-6103
▁unexpectedly	-6104
▁Illustrations	-6105
▁comparatively	-6106
▁consciousness	-6107
▁determination	-6108
▁disappointing	-6109
▁insupportable	-6110
▁misunderstood	-6111
▁opportunities	-6112
▁reprehensible	-6113
▁unconsciously	-6114
▁unwillingness	-6115
▁accomplishment	-6116
▁advantageously	-6117
▁insignificance	-6118
.;	-6119
.]	-6120
39	-6121
53	-6122
85	-6123
Ab	-6124
DE	-6125
EC	-6126
Go	-6127
Me	-6128
NC	-6129
OJ	-6130
TT	-6131
UD	-6132
US	-6133
WI	-6134
bu	-6135
eb	-6136
go	-6137
ms	-6138
sm	-6139
”]	-6140
--‘	-6141
.--	-6142
.’”	-6143
342	-6144
Con	-6145
ECT	-6146
ENB	-6147
HAM	-6148
ICE	-6149
ICK	-6150
IDE	-6151
Imp	-6152
JUD	-6153
RGE	-6154
RLE	-6155
Som	-6156
URT	-6157
_--	-6158
aks	-6159
amm	-6160
atl	-6161
box	-6162
cel	-6163
cup	-6164
fin	-6165
hys	-6166
ich	-6167
nar	-6168
nay	-6169
ogn	-6170
oke	-6171
oof	-6172
osm	-6173
rog	-6174
sho	-6175
tle	-6176
ugh	-6177
ugn	-6178
why	-6179
yce	-6180
▁20	-6181
▁24	-6182
▁31	-6183
▁32	-6184
▁37	-6185
▁40	-6186
▁42	-6187
▁44	-6188
▁45	-6189
▁47	-6190
▁Br	-6191
▁Cr	-6192
▁EB	-6193
▁Ed	-6194
▁Ex	-6195
▁IV	-6196
▁VI	-6197
▁Wh	-6198
▁oh	-6199
SW	-6200
UT	-6201
hr	-6202
ny	-6203
ov	-6204
’,	-6205
CHA	-6206
cyn	-6207
die	-6208
rop	-6209
usc	-6210
zed	-6211
▁Am	-6212
▁XV	-6213
▁“‘	-6214
▁“’	-6215
Comp	-6216
HISW	-6217
HITT	-6218
LLIA	-6219
NCER	-6220
ORGE	-6221
Only	-6222
RLES	-6223
Tell	-6224
Tend	-6225
abor	-6226
alid	-6227
aliz	-6228
anny	-6229
ante	-6230
aper	-6231
atri	-6232
aves	-6233
bare	-6234
bell	-6235
born	-6236
cult	-6237
cuse	-6238
dieu	-6239
emed	-6240
enet	-6241
eray	-6242
ersu	-6243
face	-6244
gamm	-6245
hers	-6246
ians	-6247
iary	-6248
imin	-6249
irst	-6250
itle	-6251
limp	-6252
mann	-6253
ming	-6254
omen	-6255
onic	-6256
ored	-6257
oyed	-6258
plex	-6259
reci	-6260
rect	-6261
retn	-6262
rude	-6263
sche	-6264
sion	-6265
sole	-6266
soon	-6267
stas	-6268
stri	-6269
than	-6270
till	-6271
uber	-6272
ugal	-6273
uine	-6274
uity	-6275
vent	-6276
vert	-6277
▁Anx	-6278
▁Any	-6279
▁Bes	-6280
▁END	-6281
▁Feb	-6282
▁GUT	-6283
▁LVI	-6284
▁LXI	-6285
▁Rus	-6286
▁Ser	-6287
▁Ten	-6288
▁Was	-6289
▁XII	-6290
▁XVI	-6291
▁XXV	-6292
▁bos	-6293
▁dil	-6294
▁dou	-6295
▁dur	-6296
▁ela	-6297
▁ere	-6298
▁gat	-6299
Re	-6300
pi	-6301
sc	-6302
▁7	-6303
Has	-6304
Sir	-6305
cal	-6306
oon	-6307
rel	-6308
rem	-6309
see	-6310
zen	-6311
”--	-6312
▁43	-6313
▁LA	-6314
▁ce	-6315
▁om	-6316
Eliz	-6317
OOKS	-6318
hand	-6319
icha	-6320
▁Don	-6321
▁War	-6322
▁bye	-6323
▁jum	-6324
▁mir	-6325
▁mon	-6326
▁net	-6327
▁nic	-6328
▁pet	-6329
▁saf	-6330
▁sla	-6331
▁tax	-6332
▁ter	-6333
▁ult	-6334
▁unb	-6335
▁vic	-6336
▁viv	-6337
▁wet	-6338
----’	-6339
About	-6340
Could	-6341
Darcy	-6342
ENBER	-6343
LLIAM	-6344
NCERY	-6345
OJECT	-6346
While	-6347
Would	-6348
acked	-6349
acles	-6350
alive	-6351
anegy	-6352
arcel	-6353
arnet	-6354
assed	-6355
asted	-6356
atrix	-6357
braid	-6358
butes	-6359
count	-6360
creat	-6361
enetr	-6362
epend	-6363
erful	-6364
ernal	-6365
esman	-6366
ester	-6367
eting	-6368
evish	-6369
iancy	-6370
ilial	-6371
imony	-6372
istin	-6373
itful	-6374
ltons	-6375
might	-6376
oming	-6377
ompan	-6378
ories	-6379
oring	-6380
rench	-6381
retna	-6382
ricle	-6383
shing	-6384
stasy	-6385
stead	-6386
stent	-6387
ustri	-6388
yours	-6389
▁1342	-6390
▁Arge	-6391
▁Chea	-6392
▁Craw	-6393
▁Dear	-6394
▁Dell	-6395
▁Forg	-6396
▁Janu	-6397
▁LANE	-6398
▁Lizz	-6399
,)	-6400
.}	-6401
De	-6402
Ne	-6403
Had	-6404
asp	-6405
can	-6406
des	-6407
evi	-6408
lac	-6409
lar	-6410
rat	-6411
vis	-6412
▁Ap	-6413
▁ty	-6414
Some	-6415
arth	-6416
vect	-6417
▁XXI	-6418
▁ham	-6419
▁inm	-6420
▁jew	-6421
▁rob	-6422
▁sta	-6423
▁top	-6424
Their	-6425
elmas	-6426
ensed	-6427
itous	-6428
oting	-6429
vious	-6430
▁Matl	-6431
▁More	-6432
▁Nich	-6433
▁Post	-6434
▁Soci	-6435
▁Soon	-6436
▁Take	-6437
▁Thom	-6438
▁Vain	-6439
▁XIII	-6440
▁XLIV	-6441
▁XLIX	-6442
▁XLVI	-6443
▁XXII	-6444
▁XXIV	-6445
▁XXXI	-6446
▁awed	-6447
▁bows	-6448
▁bred	-6449
▁cele	-6450
▁cent	-6451
▁conn	-6452
▁cook	-6453
▁curt	-6454
▁dark	-6455
▁dirt	-6456
▁drab	-6457
▁empt	-6458
▁enem	-6459
▁exas	-6460
▁fain	-6461
▁fant	-6462
▁fill	-6463
▁flew	-6464
▁gain	-6465
▁guid	-6466
▁irks	-6467
▁jump	-6468
▁lieu	-6469
▁magn	-6470
▁mann	-6471
▁mill	-6472
▁ming	-6473
▁noon	-6474
▁ours	-6475
▁owes	-6476
▁pair	-6477
▁palt	-6478
▁pool	-6479
▁pour	-6480
▁prey	-6481
▁pure	-6482
▁purp	-6483
▁rage	-6484
▁rash	-6485
▁reck	-6486
▁rise	-6487
▁rule	-6488
▁shel	-6489
▁soul	-6490
▁type	-6491
▁ugly	-6492
▁unab	-6493
▁unav	-6494
▁undo	-6495
▁unem	-6496
▁unpr	-6497
▁vict	-6498
▁wave	-6499
Rem	-6500
▁34	-6501
▁Ju	-6502
Sure	-6503
asol	-6504
asty	-6505
good	-6506
ints	-6507
mone	-6508
wood	-6509
▁XIV	-6510
astic	-6511
haute	-6512
inous	-6513
osted	-6514
since	-6515
ulars	-6516
usive	-6517
verty	-6518
▁Most	-6519
▁alas	-6520
▁blow	-6521
▁cast	-6522
▁fate	-6523
▁nine	-6524
▁page	-6525
▁plot	-6526
▁poll	-6527
▁sigh	-6528
▁vind	-6529
▁wore	-6530
Dawson	-6531
ENBERG	-6532
INGHAM	-6533
JUDICE	-6534
Piling	-6535
Unable	-6536
abouts	-6537
affect	-6538
alific	-6539
alling	-6540
antial	-6541
arbara	-6542
arcels	-6543
arkled	-6544
athing	-6545
atible	-6546
brated	-6547
cision	-6548
ckings	-6549
coming	-6550
encies	-6551
entive	-6552
father	-6553
gammon	-6554
gments	-6555
hanged	-6556
houses	-6557
hworth	-6558
icisms	-6559
idante	-6560
ieties	-6561
ifully	-6562
incere	-6563
indeed	-6564
insist	-6565
kingly	-6566
little	-6567
loving	-6568
manner	-6569
marked	-6570
metals	-6571
mories	-6572
nature	-6573
ordyce	-6574
ovable	-6575
pieces	-6576
scheme	-6577
teness	-6578
uating	-6579
ugment	-6580
uniary	-6581
urring	-6582
uscans	-6583
vative	-6584
veying	-6585
▁Adieu	-6586
▁Among	-6587
▁CHISW	-6588
▁COURT	-6589
▁Della	-6590
▁Diana	-6591
▁Doved	-6592
▁EBOOK	-6593
▁Fanny	-6594
▁First	-6595
▁Grant	-6596
▁Green	-6597
▁Happy	-6598
▁March	-6599
Off	-6600
_?”	-6601
asc	-6602
els	-6603
far	-6604
Have	-6605
Take	-6606
ards	-6607
arse	-6608
bish	-6609
iles	-6610
lord	-6611
make	-6612
mble	-6613
near	-6614
psed	-6615
sign	-6616
sven	-6617
upon	-6618
urpr	-6619
▁Gro	-6620
▁Pur	-6621
▁lag	-6622
amily	-6623
early	-6624
etite	-6625
hable	-6626
lieve	-6627
meant	-6628
never	-6629
seven	-6630
spass	-6631
usage	-6632
▁Give	-6633
▁List	-6634
▁Make	-6635
▁chin	-6636
▁goes	-6637
▁hang	-6638
▁reel	-6639
▁sola	-6640
▁tide	-6641
▁unus	-6642
▁ware	-6643
Exceed	-6644
limpse	-6645
svenor	-6646
unting	-6647
verish	-6648
▁Micha	-6649
▁PRESS	-6650
▁Persu	-6651
▁Pratt	-6652
▁TOOKS	-6653
▁Tease	-6654
▁Thack	-6655
▁XVIII	-6656
▁XXXII	-6657
▁XXXIV	-6658
▁XXXVI	-6659
▁acced	-6660
▁achie	-6661
▁acute	-6662
▁alike	-6663
▁alleg	-6664
▁aloof	-6665
▁amend	-6666
▁ample	-6667
▁amply	-6668
▁annum	-6669
▁arrog	-6670
▁avail	-6671
▁awake	-6672
▁awful	-6673
▁banks	-6674
▁bears	-6675
▁bewit	-6676
▁birds	-6677
▁bosom	-6678
▁brain	-6679
▁brill	-6680
▁brink	-6681
▁cares	-6682
▁cheap	-6683
▁coars	-6684
▁crown	-6685
▁disse	-6686
▁dissu	-6687
▁drily	-6688
▁earth	-6689
▁edged	-6690
▁excel	-6691
▁facts	-6692
▁falls	-6693
▁forfe	-6694
▁forms	-6695
▁gaily	-6696
▁glass	-6697
▁gowns	-6698
▁hates	-6699
Acc	-6700
ipt	-6701
rif	-6702
tte	-6703
▁OF	-6704
ache	-6705
acit	-6706
atre	-6707
ival	-6708
ivor	-6709
▁Nay	-6710
▁Res	-6711
▁duc	-6712
▁gig	-6713
Kitty	-6714
aches	-6715
bling	-6716
found	-6717
hetic	-6718
pside	-6719
rooms	-6720
▁exig	-6721
▁smil	-6722
▁sons	-6723
▁soup	-6724
▁trim	-6725
▁trun	-6726
▁worn	-6727
eneral	-6728
forced	-6729
idious	-6730
igning	-6731
ilette	-6732
opment	-6733
ricate	-6734
▁Mount	-6735
▁WHITT	-6736
▁abuse	-6737
▁accur	-6738
▁begun	-6739
▁dated	-6740
▁gates	-6741
▁guide	-6742
▁hence	-6743
▁heret	-6744
▁horri	-6745
▁inhum	-6746
▁injun	-6747
▁jokes	-6748
▁leads	-6749
▁manor	-6750
▁marks	-6751
▁meets	-6752
▁minor	-6753
▁mirac	-6754
▁mirth	-6755
▁miser	-6756
▁model	-6757
▁nasty	-6758
▁older	-6759
▁overb	-6760
▁pales	-6761
▁penet	-6762
▁plans	-6763
▁plead	-6764
▁price	-6765
▁prior	-6766
▁prone	-6767
▁range	-6768
▁repul	-6769
▁retro	-6770
▁rever	-6771
▁rival	-6772
▁rough	-6773
▁sadly	-6774
▁sakes	-6775
▁sangu	-6776
▁scale	-6777
▁scorn	-6778
▁serve	-6779
▁shake	-6780
▁slave	-6781
▁spots	-6782
▁storm	-6783
▁stren	-6784
▁tacit	-6785
▁tones	-6786
▁trial	-6787
▁unfit	-6788
▁unsuc	-6789
▁upper	-6790
▁vague	-6791
▁weary	-6792
▁wiser	-6793
▁woody	-6794
Because	-6795
Believe	-6796
Bingley	-6797
CHARLES	-6798
Conject	-6799
Who	-6800
▁10	-6801
back	-6802
from	-6803
gone	-6804
otes	-6805
▁rud	-6806
▁sne	-6807
These	-6808
ruded	-6809
▁Both	-6810
▁edge	-6811
▁gets	-6812
▁secl	-6813
▁serv	-6814
Walked	-6815
ircase	-6816
irited	-6817
nnight	-6818
oubted	-6819
▁affli	-6820
▁incur	-6821
▁satin	-6822
▁seats	-6823
▁stage	-6824
▁turns	-6825
▁works	-6826
Hearing	-6827
Meeting	-6828
WILLIAM	-6829
Without	-6830
cellent	-6831
century	-6832
cilious	-6833
conduct	-6834
consequ	-6835
culties	-6836
enerate	-6837
hausted	-6838
hauteur	-6839
hearted	-6840
ifiable	-6841
ionable	-6842
iquette	-6843
itative	-6844
onsense	-6845
pection	-6846
plexity	-6847
reading	-6848
reation	-6849
servant	-6850
urrence	-6851
ustomed	-6852
whether	-6853
▁Barnet	-6854
▁During	-6855
▁Eltons	-6856
▁French	-6857
▁Gretna	-6858
▁Hagger	-6859
▁Imprud	-6860
▁Little	-6861
▁Lizzie	-6862
▁Nobody	-6863
▁Norris	-6864
▁Scotch	-6865
▁Within	-6866
▁abused	-6867
▁acquit	-6868
▁action	-6869
▁adieus	-6870
▁adjust	-6871
▁affirm	-6872
▁allevi	-6873
▁ancles	-6874
▁appeal	-6875
▁archly	-6876
▁around	-6877
▁arrive	-6878
▁barbar	-6879
▁befall	-6880
▁behave	-6881
▁beheld	-6882
▁borrow	-6883
▁bottle	-6884
▁breast	-6885
▁caring	-6886
▁coarse	-6887
▁coldly	-6888
▁compet	-6889
▁corrob	-6890
▁crying	-6891
▁daring	-6892
▁demean	-6893
▁derive	-6894
▁despic	-6895
▁detain	-6896
▁devote	-6897
▁disput	-6898
▁doings	-6899
▁double	-6900
▁doubts	-6901
▁duties	-6902
▁eating	-6903
▁emphat	-6904
▁enable	-6905
▁ensign	-6906
▁ensued	-6907
▁envied	-6908
▁extort	-6909
▁exuber	-6910
▁fairly	-6911
▁finery	-6912
▁finest	-6913
▁fixing	-6914
▁flying	-6915
▁fonder	-6916
▁fruits	-6917
▁gaiety	-6918
▁godson	-6919
▁guided	-6920
▁guilty	-6921
▁hearty	-6922
▁impose	-6923
▁inclin	-6924
▁incomp	-6925
▁injure	-6926
▁injury	-6927
▁insure	-6928
▁intend	-6929
▁invect	-6930
▁invent	-6931
▁joyful	-6932
▁kinder	-6933
▁kissed	-6934
▁knight	-6935
▁lagged	-6936
▁laying	-6937
▁leaves	-6938
▁lesson	-6939
▁liable	-6940
▁lifted	-6941
▁liking	-6942
▁limits	-6943
▁livery	-6944
▁lodges	-6945
▁loudly	-6946
▁loving	-6947
▁malice	-6948
▁market	-6949
▁mechan	-6950
▁merits	-6951
▁mortal	-6952
▁neglig	-6953
▁occupy	-6954
▁ostent	-6955
▁overfl	-6956
▁paling	-6957
▁paltry	-6958
▁panegy	-6959
▁parade	-6960
▁partly	-6961
▁pauses	-6962
▁pieces	-6963
▁piling	-6964
▁poetry	-6965
▁premed	-6966
▁prompt	-6967
▁puzzle	-6968
▁ramble	-6969
▁rattle	-6970
▁recogn	-6971
▁remedy	-6972
▁remove	-6973
▁repaid	-6974
▁repent	-6975
▁repugn	-6976
▁resign	-6977
▁restri	-6978
▁ruined	-6979
▁saloon	-6980
▁satire	-6981
▁seized	-6982
▁sermon	-6983
▁signal	-6984
▁soothe	-6985
▁speaks	-6986
▁speedy	-6987
▁sphere	-6988
▁spoilt	-6989
▁stands	-6990
▁stated	-6991
▁stroke	-6992
▁subtle	-6993
▁teased	-6994
▁theirs	-6995
▁thread	-6996
▁threat	-6997
▁turnpi	-6998
▁uncles	-6999
▁undert	-7000
▁unfelt	-7001
▁unforg	-7002
▁unkind	-7003
▁unwell	-7004
▁volume	-7005
Accompan	-7006
Hunsford	-7007
Offended	-7008
Tenderly	-7009
Whenever	-7010
encement	-7011
erfectly	-7012
informed	-7013
itiously	-7014
mannered	-7015
reproach	-7016
▁Another	-7017
▁Barbara	-7018
▁Beatrix	-7019
▁Besides	-7020
▁British	-7021
▁Brother	-7022
▁Forgive	-7023
▁General	-7024
▁Harriet	-7025
▁Instead	-7026
▁January	-7027
▁Letters	-7028
▁Matlock	-7029
▁PROJECT	-7030
▁Preface	-7031
▁Society	-7032
▁Thomson	-7033
▁Thought	-7034
▁abusive	-7035
▁accents	-7036
▁accused	-7037
▁amazing	-7038
▁applies	-7039
▁appoint	-7040
▁augment	-7041
▁bearing	-7042
▁begging	-7043
▁behaves	-7044
▁belongs	-7045
▁beloved	-7046
▁benefic	-7047
▁blinded	-7048
▁boasted	-7049
▁boister	-7050
▁century	-7051
▁charged	-7052
▁cleared	-7053
▁closest	-7054
▁colonel	-7055
▁condole	-7056
▁conquer	-7057
▁correct	-7058
▁counted	-7059
▁courted	-7060
▁covered	-7061
▁cutting	-7062
▁daresay	-7063
▁decency	-7064
▁decline	-7065
▁deepest	-7066
▁defined	-7067
▁denoted	-7068
▁deserts	-7069
▁dinners	-7070
▁dispute	-7071
▁disturb	-7072
▁ecstasy	-7073
▁elapsed	-7074
▁eminent	-7075
▁enabled	-7076
▁endless	-7077
▁examine	-7078
▁excused	-7079
▁excuses	-7080
▁exerted	-7081
▁exposed	-7082
▁failing	-7083
▁failure	-7084
▁fainter	-7085
▁favours	-7086
▁feather	-7087
▁fellows	-7088
▁females	-7089
▁firmest	-7090
▁footing	-7091
▁founded	-7092
▁fronted	-7093
▁genuine	-7094
▁glaring	-7095
▁glimpse	-7096
▁gradual	-7097
▁gratify	-7098
▁healthy	-7099
▁heroine	-7100
▁holding	-7101
▁honours	-7102
▁illness	-7103
▁induced	-7104
▁infancy	-7105
▁inflict	-7106
▁inspire	-7107
▁intimid	-7108
▁intrude	-7109
▁involve	-7110
▁irksome	-7111
▁judging	-7112
▁lasting	-7113
▁licence	-7114
▁longing	-7115
▁mannish	-7116
▁mansion	-7117
▁masters	-7118
▁merited	-7119
▁mislead	-7120
▁nephews	-7121
▁notable	-7122
▁nowhere	-7123
▁obvious	-7124
▁outstri	-7125
▁painter	-7126
▁parasol	-7127
▁parcels	-7128
▁partake	-7129
▁passage	-7130
▁pausing	-7131
▁peevish	-7132
▁periods	-7133
▁pitiful	-7134
▁players	-7135
▁playful	-7136
▁pleases	-7137
▁pledged	-7138
▁poverty	-7139
▁praised	-7140
▁praises	-7141
▁pressed	-7142
▁presume	-7143
▁prevail	-7144
▁proflig	-7145
▁project	-7146
▁protest	-7147
▁purport	-7148
▁pursued	-7149
▁quieted	-7150
▁rallied	-7151
▁rapidly	-7152
▁rapture	-7153
▁realism	-7154
▁receipt	-7155
▁relieve	-7156
▁repress	-7157
▁reputed	-7158
▁resolve	-7159
▁retreat	-7160
▁returns	-7161
▁revenge	-7162
▁rightly	-7163
▁scarlet	-7164
▁sermons	-7165
▁shaking	-7166
▁sharing	-7167
▁shyness	-7168
▁singled	-7169
▁slyness	-7170
▁somehow	-7171
▁spoiled	-7172
▁stating	-7173
▁strokes	-7174
▁studied	-7175
▁surmise	-7176
▁surpass	-7177
▁survive	-7178
▁tenants	-7179
▁thereby	-7180
▁thirdly	-7181
▁torment	-7182
▁unavoid	-7183
▁upbraid	-7184
▁varying	-7185
▁warmest	-7186
▁weighed	-7187
▁whither	-7188
▁winking	-7189
▁working	-7190
▁worldly	-7191
▁yielded	-7192
barrassed	-7193
ciliation	-7194
countable	-7195
creatures	-7196
enetrably	-7197
inctively	-7198
ossession	-7199
therefore	-7200
▁Allowing	-7201
▁Argemone	-7202
▁CHANCERY	-7203
▁CHISWICK	-7204
▁Consider	-7205
▁Crawford	-7206
▁Cruscans	-7207
▁Dovedale	-7208
▁Regulars	-7209
▁Scarcely	-7210
▁abruptly	-7211
▁accosted	-7212
▁acquired	-7213
▁admiring	-7214
▁anecdote	-7215
▁appetite	-7216
▁ardently	-7217
▁arranged	-7218
▁arrested	-7219
▁artfully	-7220
▁articles	-7221
▁assented	-7222
▁astonish	-7223
▁attacked	-7224
▁audience	-7225
▁avoiding	-7226
▁bitterly	-7227
▁bordered	-7228
▁boundary	-7229
▁breaking	-7230
▁brothers	-7231
▁careless	-7232
▁censured	-7233
▁checking	-7234
▁cheering	-7235
▁coachman	-7236
▁conjugal	-7237
▁conquest	-7238
▁consists	-7239
▁contrari	-7240
▁conveyed	-7241
▁covering	-7242
▁crossing	-7243
▁curricle	-7244
▁cynicism	-7245
▁decisive	-7246
▁deferred	-7247
▁delights	-7248
▁departed	-7249
▁derision	-7250
▁desiring	-7251
▁detached	-7252
▁detailed	-7253
▁detected	-7254
▁dilatory	-7255
▁disclaim	-7256
▁disposal	-7257
▁distract	-7258
▁doubtful	-7259
▁doubting	-7260
▁draughts	-7261
▁duration	-7262
▁educated	-7263
▁effusion	-7264
▁elevated	-7265
▁eloquent	-7266
▁embraced	-7267
▁evenness	-7268
▁exceeded	-7269
▁executed	-7270
▁existing	-7271
▁extracts	-7272
▁fashions	-7273
▁feverish	-7274
▁foreseen	-7275
▁gaieties	-7276
▁gardener	-7277
▁gathered	-7278
▁governed	-7279
▁guidance	-7280
▁headache	-7281
▁hitherto	-7282
▁humorous	-7283
▁idleness	-7284
▁implicit	-7285
▁importun	-7286
▁improper	-7287
▁improves	-7288
▁incensed	-7289
▁included	-7290
▁indirect	-7291
▁indulged	-7292
▁infinite	-7293
▁innocent	-7294
▁inspired	-7295
▁intently	-7296
▁landlord	-7297
▁laughter	-7298
▁masterly	-7299
▁maternal	-7300
▁meanness	-7301
▁meantime	-7302
▁meditate	-7303
▁meetings	-7304
▁memories	-7305
▁milliner	-7306
▁mistakes	-7307
▁moderate	-7308
▁morality	-7309
▁narrowly	-7310
▁neatness	-7311
▁novelist	-7312
▁observer	-7313
▁obtruded	-7314
▁pathetic	-7315
▁petition	-7316
▁pictures	-7317
▁planning	-7318
▁polished	-7319
▁portrait	-7320
▁precious	-7321
▁predomin	-7322
▁pretence	-7323
▁prettier	-7324
▁pursuing	-7325
▁qualific	-7326
▁quarters	-7327
▁recalled	-7328
▁renewing	-7329
▁repining	-7330
▁reproofs	-7331
▁restored	-7332
▁restrain	-7333
▁retained	-7334
▁revealed	-7335
▁rudeness	-7336
▁sanguine	-7337
▁scolding	-7338
▁scrupled	-7339
▁sensibly	-7340
▁shameful	-7341
▁singular	-7342
▁solidity	-7343
▁sparkled	-7344
▁startled	-7345
▁stirring	-7346
▁striving	-7347
▁supplied	-7348
▁suppress	-7349
▁survivor	-7350
▁symptoms	-7351
▁tempered	-7352
▁tenderly	-7353
▁throwing	-7354
▁tiresome	-7355
▁toilette	-7356
▁tranquil	-7357
▁trespass	-7358
▁trusting	-7359
▁underval	-7360
▁unjustly	-7361
▁vanished	-7362
▁veracity	-7363
▁vivacity	-7364
▁wandered	-7365
▁wounding	-7366
▁Cheapside	-7367
▁Christian	-7368
▁GUTENBERG	-7369
▁Gouldings	-7370
▁Grosvenor	-7371
▁PREJUDICE	-7372
▁Philipses	-7373
▁Seriously	-7374
▁Sometimes	-7375
▁Thackeray	-7376
▁abominate	-7377
▁accounted	-7378
▁admitting	-7379
▁adventure	-7380
▁affording	-7381
▁affronted	-7382
▁amendment	-7383
▁anxiously	-7384
▁apologies	-7385
▁arranging	-7386
▁assiduous	-7387
▁assisting	-7388
▁atonement	-7389
▁attracted	-7390
▁avoidance	-7391
▁blameless	-7392
▁brightest	-7393
▁canvassed	-7394
▁commanded	-7395
▁commended	-7396
▁comparing	-7397
▁completed	-7398
▁comprised	-7399
▁concisely	-7400
▁condemned	-7401
▁conducted	-7402
▁confiding	-7403
▁conscient	-7404
▁consented	-7405
▁consisted	-7406
▁consulted	-7407
▁courtship	-7408
▁creditors	-7409
▁deceitful	-7410
▁defective	-7411
▁depending	-7412
▁depressed	-7413
▁deserving	-7414
▁despising	-7415
▁destitute	-7416
▁detaining	-7417
▁directing	-7418
▁discharge	-7419
▁dishonest	-7420
▁disturbed	-7421
▁duplicity	-7422
▁dutifully	-7423
▁effusions	-7424
▁embracing	-7425
▁entreated	-7426
▁estimable	-7427
▁exhausted	-7428
▁exhibited	-7429
▁expedient	-7430
▁expressly	-7431
▁exquisite	-7432
▁faculties	-7433
▁fantastic	-7434
▁faultless	-7435
▁fireplace	-7436
▁fluttered	-7437
▁forwarded	-7438
▁fretfully	-7439
▁happening	-7440
▁hastening	-7441
▁horseback	-7442
▁immovable	-7443
▁impressed	-7444
▁impudence	-7445
▁including	-7446
▁indignant	-7447
▁indignity	-7448
▁indolence	-7449
▁inexpress	-7450
▁informing	-7451
▁ingenious	-7452
▁ingenuity	-7453
▁injurious	-7454
▁insincere	-7455
▁intricate	-7456
▁intruding	-7457
▁involving	-7458
▁irritable	-7459
▁liberally	-7460
▁malicious	-7461
▁meditated	-7462
▁miniature	-7463
▁mountains	-7464
▁neglected	-7465
▁northward	-7466
▁obstacles	-7467
▁obstinacy	-7468
▁oppressed	-7469
▁ornaments	-7470
▁overpower	-7471
▁painfully	-7472
▁panegyric	-7473
▁pecuniary	-7474
▁performer	-7475
▁persisted	-7476
▁portraits	-7477
▁possesses	-7478
▁possessor	-7479
▁practises	-7480
▁presented	-7481
▁pretended	-7482
▁provision	-7483
▁purchases	-7484
▁qualified	-7485
▁rapturous	-7486
▁recurring	-7487
▁reference	-7488
▁rejecting	-7489
▁reluctant	-7490
▁repressed	-7491
▁requested	-7492
▁resentful	-7493
▁retailing	-7494
▁scattered	-7495
▁sharpened	-7496
▁sheltered	-7497
▁smilingly	-7498
▁societies	-7499
▁springing	-7500
▁staircase	-7501
▁statement	-7502
▁stiffness	-7503
▁stockings	-7504
▁strictest	-7505
▁struggled	-7506
▁subsisted	-7507
▁suffering	-7508
▁suspended	-7509
▁testified	-7510
▁testimony	-7511
▁thereupon	-7512
▁tradesman	-7513
▁undergone	-7514
▁undoubted	-7515
▁unfeeling	-7516
▁unsuccess	-7517
▁variation	-7518
▁vexatious	-7519
▁violation	-7520
▁wondering	-7521
▁worthless	-7522
Accompanied	-7523
Gracechurch	-7524
Undoubtedly	-7525
consequence	-7526
gratulation	-7527
▁Haggerston	-7528
▁Michaelmas	-7529
▁abruptness	-7530
▁accustomed	-7531
▁additional	-7532
▁answerable	-7533
▁apartments	-7534
▁apologized	-7535
▁apparently	-7536
▁assemblies	-7537
▁attraction	-7538
▁backgammon	-7539
▁breathless	-7540
▁brilliancy	-7541
▁cautioning	-7542
▁celebrated	-7543
▁charmingly	-7544
▁cheerfully	-7545
▁coarseness	-7546
▁collecting	-7547
▁compatible	-7548
▁condescend	-7549
▁confidante	-7550
▁confirming	-7551
▁consulting	-7552
▁containing	-7553
▁continuing	-7554
▁contribute	-7555
▁convention	-7556
▁creditable	-7557
▁deficiency	-7558
▁descending	-7559
▁describing	-7560
▁discourage	-7561
▁disgracing	-7562
▁disgusting	-7563
▁distinctly	-7564
▁distracted	-7565
▁downstairs	-7566
▁dreadfully	-7567
▁essentials	-7568
▁everywhere	-7569
▁exasperate	-7570
▁exercising	-7571
▁expressive	-7572
▁familiarly	-7573
▁fastidious	-7574
▁favourably	-7575
▁favourites	-7576
▁flirtation	-7577
▁forgetting	-7578
▁generality	-7579
▁generation	-7580
▁grievances	-7581
▁handsomely	-7582
▁hereabouts	-7583
▁imaginable	-7584
▁indelicacy	-7585
▁indisposed	-7586
▁individual	-7587
▁inheriting	-7588
▁inspection	-7589
▁intimately	-7590
▁knighthood	-7591
▁laughingly	-7592
▁liberality	-7593
▁loveliness	-7594
▁maintained	-7595
▁minuteness	-7596
▁miraculous	-7597
▁misconduct	-7598
▁moderation	-7599
▁neglecting	-7600
▁originally	-7601
▁originated	-7602
▁perplexity	-7603
▁personages	-7604
▁pleasantry	-7605
▁positively	-7606
▁prejudices	-7607
▁prevailing	-7608
▁previously	-7609
▁principles	-7610
▁propensity	-7611
▁prosperous	-7612
▁protection	-7613
▁refreshing	-7614
▁regardless	-7615
▁regretting	-7616
▁reproached	-7617
▁requesting	-7618
▁resistance	-7619
▁restrained	-7620
▁retrospect	-7621
▁sanctioned	-7622
▁settlement	-7623
▁similarity	-7624
▁soliciting	-7625
▁spiritless	-7626
▁subsisting	-7627
▁sufferings	-7628
▁suppressed	-7629
▁suspecting	-7630
▁suspicious	-7631
▁threadbare	-7632
▁transports	-7633
▁unavailing	-7634
▁unsuitable	-7635
▁warehouses	-7636
▁weaknesses	-7637
▁wickedness	-7638
▁yourselves	-7639
Conjecturing	-7640
▁WHITTINGHAM	-7641
▁absurdities	-7642
▁affectation	-7643
▁affirmative	-7644
▁apprehended	-7645
▁captivating	-7646
▁chambermaid	-7647
▁circulation	-7648
▁comfortably	-7649
▁comparative	-7650
▁concealment	-7651
▁concurrence	-7652
▁conjectured	-7653
▁consciously	-7654
▁contributes	-7655
▁development	-7656
▁differences	-7657
▁discernment	-7658
▁discharging	-7659
▁discomposed	-7660
▁discouraged	-7661
▁distinguish	-7662
▁earnestness	-7663
▁exclamation	-7664
▁familiarity	-7665
▁forgiveness	-7666
▁fortunately	-7667
▁fretfulness	-7668
▁humiliating	-7669
▁humiliation	-7670
▁inattention	-7671
▁inattentive	-7672
▁incessantly	-7673
▁independent	-7674
▁instruction	-7675
▁overbearing	-7676
▁penetration	-7677
▁perfections	-7678
▁pleasantest	-7679
▁precipitate	-7680
▁punctuality	-7681
▁remembering	-7682
▁resentfully	-7683
▁selfishness	-7684
▁strenuously	-7685
▁substantial	-7686
▁superiority	-7687
▁surrounding	-7688
▁temptations	-7689
▁termination	-7690
▁thoughtless	-7691
▁unconcerned	-7692
▁unforgiving	-7693
▁unhappiness	-7694
▁vindication	-7695
▁accompanying	-7696
▁acquiescence	-7697
▁advantageous	-7698
▁anticipating	-7699
▁carelessness	-7700
▁commencement	-7701
▁conjecturing	-7702
▁consequences	-7703
▁counteracted	-7704
▁deliberately	-7705
▁exaggeration	-7706
▁explanations	-7707
▁expressively	-7708
▁hypocritical	-7709
▁illustration	-7710
▁impenetrably	-7711
▁inclinations	-7712
▁interrupting	-7713
▁neighbouring	-7714
▁perturbation	-7715
▁precipitance	-7716
▁preparations	-7717
▁preservation	-7718
▁preservative	-7719
▁recommending	-7720
▁representing	-7721
▁supercilious	-7722
▁triumphantly	-7723
▁unaffectedly	-7724
▁unfavourable	-7725
▁unreasonably	-7726
▁watchfulness	-7727
▁wretchedness	-7728
▁apprehensions	-7729
▁authoritative	-7730
▁commendations	-7731
▁compassionate	-7732
▁congratulated	-7733
▁conversations	-7734
▁correspondent	-7735
▁disadvantages	-7736
▁dishonourable	-7737
▁expeditiously	-7738
▁inconsistency	-7739
▁instinctively	-7740
▁intentionally	-7741
▁involuntarily	-7742
▁prepossession	-7743
▁unaccountable	-7744
▁unembarrassed	-7745
▁unfortunately	-7746
▁unjustifiable	-7747
▁circumspection	-7748
▁communications	-7749
▁disinclination	-7750
▁distinguishing	-7751
▁inconveniences	-7752
▁misrepresented	-7753
▁qualifications	-7754
▁reconciliation	-7755
▁thoughtfulness	-7756
▁acknowledgments	-7757
▁characteristics	-7758
▁thoughtlessness	-7759
13,	-7760
ARO	-7761
BUR	-7762
NET	-7763
TAR	-7764
Two	-7765
_),	-7766
fax	-7767
nug	-7768
saf	-7769
saw	-7770
▁60	-7771
▁67	-7772
▁69	-7773
▁87	-7774
▁97	-7775
,’--	-7776
AROL	-7777
BURY	-7778
Boul	-7779
LLEN	-7780
Next	-7781
Prob	-7782
RING	-7783
Sept	-7784
TART	-7785
Walt	-7786
buke	-7787
goat	-7788
mmet	-7789
obli	-7790
obsc	-7791
raws	-7792
riev	-7793
runk	-7794
safe	-7795
scen	-7796
seek	-7797
smen	-7798
ssip	-7799
Poor	-7800
bric	-7801
lets	-7802
mpat	-7803
ocal	-7804
pets	-7805
time	-7806
ugit	-7807
work	-7808
▁108	-7809
▁113	-7810
▁139	-7811
▁143	-7812
▁148	-7813
▁161	-7814
▁175	-7815
▁209	-7816
▁213	-7817
▁215	-7818
▁221	-7819
▁243	-7820
▁261	-7821
▁263	-7822
▁267	-7823
▁285	-7824
▁321	-7825
▁327	-7826
▁370	-7827
▁385	-7828
▁404	-7829
▁415	-7830
▁431	-7831
▁434	-7832
▁448	-7833
▁457	-7834
▁472	-7835
▁6_.	-7836
▁BEN	-7837
▁DAR	-7838
▁Edm	-7839
▁Esm	-7840
▁LIV	-7841
▁LIX	-7842
▁Und	-7843
▁_15	-7844
▁fox	-7845
▁hug	-7846
▁phr	-7847
.’--“	-7848
.”--‘	-7849
Eliza	-7850
INGLE	-7851
Pride	-7852
Still	-7853
agems	-7854
althi	-7855
anned	-7856
aphys	-7857
ascin	-7858
atric	-7859
atson	-7860
bisho	-7861
calfe	-7862
cheer	-7863
cheon	-7864
chiev	-7865
divis	-7866
grasp	-7867
grove	-7868
hysic	-7869
ierce	-7870
impud	-7871
ipage	-7872
iqued	-7873
isans	-7874
larke	-7875
mazed	-7876
metap	-7877
mpton	-7878
ompli	-7879
onier	-7880
orrid	-7881
ossal	-7882
ottag	-7883
ouche	-7884
party	-7885
peaks	-7886
priet	-7887
pters	-7888
queat	-7889
riday	-7890
rills	-7891
scrat	-7892
shall	-7893
spoke	-7894
surpr	-7895
utors	-7896
▁156.	-7897
▁34._	-7898
▁Apri	-7899
John	-7900
clat	-7901
▁maj	-7902
alism	-7903
conce	-7904
hilst	-7905
mises	-7906
▁	-7907
e	-7908
t	-7909
a	-7910
o	-7911
n	-7912
i	-7913
h	-7914
s	-7915
r	-7916
d	-7917
l	-7918
u	-7919
m	-7920
c	-7921
y	-7922
f	-7923
w	-7924
g	-7925
,	-7926
p	-7927
b	-7928
.	-7929
v	-7930
k	-7931
I	-7932
“	-7933
”	-7934
M	-7935
;	-7936
-	-7937
B	-7938
_	-7939
z	-7940
T	-7941
x	-7942
L	-7943
E	-7944
H	-7945
’	-7946
C	-7947
W	-7948
q	-7949
A	-7950
D	-7951
j	-7952
S	-7953
?	-7954
!	-7955
Y	-7956
J	-7957
:	-7958
N	-7959
P	-7960
G	-7961
O	-7962
[	-7963
]	-7964
R	-7965
F	-7966
X	-7967
K	-7968
1	-7969
4	-7970
V	-7971
8	-7972
9	-7973
2	-7974
3	-7975
U	-7976
(	-7977
)	-7978
*	-7979
6	-7980
‘	-7981
5	-7982
7	-7983
/	-7984
0	-7985
ê	-7986
^	-7987
{	-7988
}	-7989
à	-7990
·	-7991
é	-7992
&	-7993
Z	-7994
â	-7995
œ	-7996
